<pad/>	0
</seq>	0
<seq>	0
<unk/>	0
▁.	-2.74595
▁,	-3.18698
▁or	-3.29315
▁a	-3.44859
▁of	-3.5104
s	-3.62611
▁;	-3.72247
▁to	-3.79105
ing	-3.84652
▁the	-3.88359
▁	-3.97324
▁A	-4.17354
ed	-4.3425
▁To	-4.3507
▁in	-4.35211
ly	-4.69584
▁and	-4.86595
▁The	-5.0035
▁with	-5.02049
(	-5.05431
▁)	-5.05431
y	-5.09889
▁an	-5.12067
▁by	-5.23814
▁that	-5.26444
▁as	-5.35337
▁be	-5.43341
▁for	-5.4655
e	-5.47096
m	-5.50355
d	-5.55119
▁is	-5.573
-	-5.60918
▁something	-5.6448
▁fro	-5.71002
▁one	-5.71783
▁especially	-5.75432
▁which	-5.79047
▁person	-5.79511
▁An	-5.79919
▁on	-5.80762
▁who	-5.86046
▁not	-6.06795
▁Of	-6.0936
▁'	-6.17572
▁In	-6.21221
ion	-6.22265
▁other	-6.23929
▁being	-6.24907
n	-6.26535
▁act	-6.30498
al	-6.3918
▁such	-6.41913
er	-6.46126
▁etc	-6.46487
▁manner	-6.47086
▁Hav	-6.4741
able	-6.52278
▁state	-6.56005
▁at	-6.57309
out	-6.61995
used	-6.62932
▁make	-6.6409
▁form	-6.66771
▁Not	-6.70351
t	-6.74776
having	-6.77991
▁time	-6.79282
es	-6.80349
▁usual	-6.80478
▁Any	-6.81697
▁it	-6.82936
▁into	-6.84046
▁some	-6.84441
▁often	-6.85476
▁Some	-6.85488
▁place	-6.86189
▁someone	-6.86697
:	-6.89272
ness	-6.91088
▁un	-6.93315
▁One	-6.94599
ity	-6.95426
▁part	-6.95638
ce	-6.95952
▁out	-6.97205
ment	-6.97596
▁another	-6.97913
▁use	-7.00003
thing	-7.023
▁any	-7.02303
ation	-7.02437
▁relat	-7.02756
▁cause	-7.02976
on	-7.04145
▁more	-7.04444
▁pertain	-7.05294
▁its	-7.06049
ous	-7.0759
▁than	-7.08692
▁group	-7.10029
▁small	-7.11177
▁particular	-7.1164
▁large	-7.12286
▁are	-7.13853
▁quality	-7.1659
▁two	-7.17203
▁number	-7.18226
ther	-7.18944
▁people	-7.20971
en	-7.21056
▁over	-7.21358
▁has	-7.21599
▁way	-7.2358
▁up	-7.25795
twee	-7.26703
▁no	-7.27619
▁when	-7.27643
▁action	-7.28417
▁made	-7.29806
▁but	-7.35385
▁set	-7.36359
▁thing	-7.37221
▁process	-7.39402
▁can	-7.39648
ic	-7.42711
▁body	-7.42867
.	-7.43934
▁long	-7.44003
▁have	-7.44013
▁like	-7.44045
r	-7.4409
▁object	-7.44703
▁specific	-7.4475
▁great	-7.45308
▁us	-7.46535
▁order	-7.47201
▁sound	-7.47394
▁With	-7.47867
▁through	-7.48744
▁area	-7.51603
st	-7.52134
▁work	-7.52634
▁move	-7.52711
▁so	-7.55186
ive	-7.56206
ies	-7.56938
ry	-7.57522
▁S	-7.57972
or	-7.58242
▁word	-7.58243
▁where	-7.58864
us	-7.59912
▁type	-7.60325
▁That	-7.60717
ble	-7.60917
▁similar	-7.62324
▁position	-7.62385
▁again	-7.64651
ally	-7.64694
▁take	-7.6516
▁very	-7.65642
▁all	-7.66133
in	-7.6621
▁do	-7.66411
▁water	-7.66417
▁high	-7.66605
▁system	-7.67938
▁end	-7.68082
ance	-7.68424
▁about	-7.69098
▁give	-7.69428
▁condition	-7.70276
le	-7.71105
▁particularly	-7.7242
▁light	-7.72453
ir	-7.74394
▁given	-7.74587
one	-7.75115
▁power	-7.75518
▁period	-7.75527
▁become	-7.76219
▁sense	-7.77025
▁show	-7.77636
▁language	-7.78103
▁music	-7.78241
▁certain	-7.78483
▁back	-7.78784
▁sam	-7.79892
▁if	-7.81138
▁physical	-7.81275
▁amount	-7.81603
▁perform	-7.82874
▁point	-7.82936
▁Be	-7.8295
▁things	-7.84261
th	-7.84874
▁material	-7.8503
▁lack	-7.86401
▁under	-7.86573
▁woman	-7.86872
▁this	-7.87229
▁good	-7.87569
▁change	-7.88395
▁device	-7.88904
▁re	-7.89448
▁structure	-7.89901
▁member	-7.90723
less	-7.90845
▁value	-7.91538
▁surface	-7.92394
▁activity	-7.93272
▁different	-7.93574
ful	-7.93885
▁piece	-7.94184
▁event	-7.94394
a	-7.94771
▁Per	-7.9539
▁short	-7.95886
▁side	-7.95937
lso	-7.96382
▁animal	-7.96478
▁degree	-7.9651
ily	-7.96711
▁substance	-7.97278
▁food	-7.97794
▁put	-7.97999
▁line	-7.98047
▁human	-7.98379
▁Un	-7.99131
▁force	-8.00002
▁result	-8.0031
▁class	-8.00393
▁together	-8.00579
▁off	-8.00633
▁character	-8.00925
▁individual	-8.01046
ent	-8.0275
▁game	-8.02771
▁effect	-8.0304
▁dur	-8.03994
▁go	-8.04133
▁sexual	-8.04167
▁after	-8.05059
▁right	-8.0517
▁contain	-8.05274
▁consider	-8.05538
▁means	-8.05569
taining	-8.05624
▁kind	-8.05815
▁subject	-8.05921
▁purpose	-8.06843
▁direction	-8.06929
g	-8.07085
▁close	-8.07234
▁cover	-8.07363
l	-8.08121
▁propert	-8.08223
▁name	-8.08364
▁characteristic	-8.08454
▁single	-8.08463
▁instance	-8.08474
▁parts	-8.08838
▁male	-8.08985
▁social	-8.09534
ve	-8.09629
▁dis	-8.10081
▁Relat	-8.10377
ary	-8.10858
`	-8.11245
▁hold	-8.11711
▁situation	-8.12142
▁liquid	-8.12145
▁many	-8.12168
▁family	-8.12753
▁interest	-8.12755
▁C	-8.13034
▁''	-8.13229
▁e	-8.13357
▁`	-8.14627
▁style	-8.15189
▁toward	-8.15553
▁strong	-8.15923
▁item	-8.16014
▁grow	-8.16165
▁design	-8.16386
se	-8.16614
▁vari	-8.16895
▁view	-8.17142
▁man	-8.17225
▁space	-8.1731
▁f	-8.17456
▁each	-8.17602
▁movement	-8.18373
▁motion	-8.18706
est	-8.18713
▁sometime	-8.18756
▁away	-8.18922
/	-8.18976
ten	-8.19382
▁E	-8.19813
▁regard	-8.20463
▁play	-8.2086
▁unit	-8.20922
▁appearance	-8.21137
▁down	-8.21752
▁ei	-8.22217
▁common	-8.22487
▁first	-8.22861
▁self	-8.22902
▁shape	-8.23033
▁control	-8.2308
▁what	-8.23532
▁practice	-8.23584
▁support	-8.24098
▁open	-8.24284
ty	-8.2429
▁upon	-8.24316
▁most	-8.24316
▁others	-8.24438
▁Ver	-8.24459
ical	-8.24787
▁due	-8.24974
▁original	-8.25205
▁oneself	-8.25227
▁non	-8.25959
▁information	-8.26505
▁produce	-8.26673
▁base	-8.27687
▁quantity	-8.27792
▁player	-8.27913
▁life	-8.28442
▁new	-8.28946
▁p	-8.29096
▁air	-8.29506
▁consist	-8.30164
▁carry	-8.3022
▁product	-8.30966
▁F	-8.31523
▁opposed	-8.31793
▁de	-8.31968
▁vehicle	-8.32126
▁extent	-8.32129
making	-8.32187
▁soft	-8.32787
ish	-8.3286
▁public	-8.33059
▁legal	-8.33497
▁less	-8.33699
▁fill	-8.33711
▁ball	-8.34101
▁law	-8.34624
▁well	-8.34997
▁mark	-8.35102
wise	-8.3523
▁respect	-8.35399
▁typically	-8.35644
o	-8.35839
▁low	-8.36001
▁own	-8.36063
like	-8.36071
▁business	-8.36089
▁clear	-8.36137
▁head	-8.36265
▁plant	-8.36346
▁land	-8.36485
age	-8.36668
▁pass	-8.36812
▁ra	-8.37436
▁example	-8.37479
▁female	-8.37479
▁building	-8.37832
▁D	-8.37876
▁species	-8.3824
▁instrument	-8.38863
▁function	-8.39055
cy	-8.39496
▁involv	-8.3969
▁whole	-8.40233
▁t	-8.40571
um	-8.40886
▁level	-8.41123
▁genus	-8.4169
▁free	-8.42413
▁mind	-8.42466
▁near	-8.42467
▁difficult	-8.42526
▁child	-8.43187
▁ground	-8.43903
▁year	-8.43926
▁standard	-8.44045
▁provide	-8.44252
▁color	-8.44666
▁money	-8.447
▁natural	-8.45305
▁attach	-8.45333
▁specified	-8.45433
▁concern	-8.45435
▁main	-8.45538
▁present	-8.45709
▁sudden	-8.46087
▁attention	-8.46208
▁bring	-8.46518
ism	-8.46661
▁resembl	-8.46764
▁computer	-8.46847
tended	-8.47036
▁c	-8.47342
▁characteristics	-8.47677
▁produced	-8.47998
▁influence	-8.48047
▁country	-8.48406
▁fact	-8.49024
▁generally	-8.49232
▁may	-8.49244
▁flow	-8.4934
▁relative	-8.4958
▁region	-8.49991
ability	-8.5057
▁skill	-8.51453
▁three	-8.51604
▁face	-8.51607
▁arm	-8.5203
▁else	-8.52265
▁sub	-8.52504
▁general	-8.52522
▁associated	-8.52607
▁found	-8.52989
▁second	-8.53066
▁sequence	-8.53088
▁tree	-8.53153
▁authority	-8.53185
▁remove	-8.53624
▁represent	-8.53767
▁before	-8.54026
▁thin	-8.54043
▁collect	-8.54129
▁disease	-8.54482
▁Lack	-8.54689
▁political	-8.54701
▁turn	-8.55363
▁field	-8.55462
▁much	-8.55509
▁real	-8.56252
▁worn	-8.56386
▁moral	-8.56632
▁bad	-8.56744
▁drink	-8.57543
▁his	-8.57781
ond	-8.57814
▁limit	-8.58002
▁organization	-8.58037
▁text	-8.5809
▁behaviour	-8.58855
▁nature	-8.58929
▁hand	-8.59084
▁increase	-8.59707
▁case	-8.59894
▁serv	-8.6021
▁both	-8.60422
▁meaning	-8.60566
▁allow	-8.60876
▁art	-8.60922
▁sign	-8.61301
▁size	-8.61516
▁traditional	-8.61821
▁known	-8.61877
▁whil	-8.62093
▁rank	-8.62593
▁white	-8.62796
▁1	-8.63272
▁equal	-8.63279
▁culture	-8.63281
▁writing	-8.6334
▁weight	-8.63469
▁day	-8.63499
▁come	-8.63529
▁heat	-8.63846
▁metal	-8.63848
▁animals	-8.63881
▁office	-8.64022
▁opinion	-8.64121
▁location	-8.64157
▁will	-8.64157
▁house	-8.64454
▁feeling	-8.6454
▁ship	-8.64665
▁Caus	-8.64833
▁sex	-8.64946
tic	-8.64977
▁religious	-8.65038
▁element	-8.65083
▁above	-8.65163
▁cut	-8.65247
▁formal	-8.65627
▁skin	-8.6581
▁question	-8.65906
▁liv	-8.65961
▁course	-8.66108
▁too	-8.66236
▁opposite	-8.66822
ch	-8.66951
▁blood	-8.66986
▁mass	-8.67573
▁see	-8.67624
▁past	-8.67663
▁apply	-8.67874
▁treat	-8.68009
ant	-8.6813
▁serve	-8.68173
et	-8.68519
▁break	-8.68539
▁several	-8.68696
▁exist	-8.68861
▁relationship	-8.68863
▁look	-8.68952
▁travel	-8.6947
▁matter	-8.69661
▁extreme	-8.69852
▁service	-8.69858
ence	-8.70126
low	-8.7023
▁normal	-8.70419
▁idea	-8.70475
▁fruit	-8.70578
▁excessive	-8.70607
▁true	-8.70646
▁complete	-8.71233
▁behavior	-8.71539
▁task	-8.71539
▁fire	-8.71618
ware	-8.71641
▁thought	-8.71653
▁race	-8.71665
mbling	-8.71778
▁American	-8.71855
▁bird	-8.7211
▁desire	-8.72296
▁top	-8.72314
▁cap	-8.72383
▁phrase	-8.7251
done	-8.7254
0	-8.72549
▁separate	-8.72597
▁energy	-8.72616
▁length	-8.72692
▁wood	-8.72723
▁describ	-8.72758
▁lea	-8.7304
▁colour	-8.73069
▁dark	-8.73344
▁hard	-8.73359
▁statement	-8.73376
▁follow	-8.7348
▁drug	-8.7352
▁throw	-8.7357
▁image	-8.73636
▁expression	-8.73647
▁every	-8.73754
▁writ	-8.74019
▁B	-8.74139
▁live	-8.74222
▁accept	-8.74339
▁attempt	-8.7448
▁source	-8.74487
▁negative	-8.74497
rom	-8.74744
▁lower	-8.75351
▁little	-8.75485
▁front	-8.75628
▁official	-8.75702
▁objects	-8.761
ything	-8.76255
ory	-8.7632
▁effort	-8.7649
▁data	-8.76501
▁eye	-8.76542
▁book	-8.76677
▁R	-8.76925
▁feature	-8.77324
▁was	-8.77491
▁fail	-8.77514
▁distance	-8.77728
▁train	-8.77977
▁mov	-8.78045
▁hair	-8.78132
k	-8.78158
▁measure	-8.78254
▁elements	-8.78441
▁including	-8.78542
▁causing	-8.78767
▁belief	-8.79415
▁deep	-8.79426
▁company	-8.79583
▁regular	-8.79583
▁violent	-8.79586
▁sharp	-8.79586
▁government	-8.79621
▁Rese	-8.79713
▁foot	-8.79749
cause	-8.79752
▁along	-8.79975
▁emotion	-8.80427
▁speech	-8.80499
▁knowledge	-8.80643
▁record	-8.80678
▁speak	-8.81122
▁H	-8.81378
▁harm	-8.81659
▁return	-8.817
▁pattern	-8.81732
▁sea	-8.81835
▁need	-8.81857
▁operation	-8.81911
▁fish	-8.8201
▁quickly	-8.82353
▁th	-8.82539
▁events	-8.82649
▁strength	-8.827
ative	-8.82761
▁attack	-8.82772
▁detail	-8.82778
▁rapid	-8.82782
▁letter	-8.82788
▁itself	-8.82812
▁portion	-8.82829
▁distinguish	-8.83066
▁leg	-8.83117
▁requir	-8.83543
ure	-8.83749
▁goal	-8.83751
▁principle	-8.83874
zed	-8.84
▁important	-8.84069
▁black	-8.84111
ose	-8.84212
▁popular	-8.85009
round	-8.851
▁Us	-8.85119
▁collective	-8.85176
▁conduct	-8.85242
▁round	-8.85379
body	-8.85515
▁experience	-8.85652
▁horse	-8.8587
▁wind	-8.85964
▁false	-8.86077
▁print	-8.86188
▁fit	-8.86218
▁alcohol	-8.8625
▁fall	-8.86621
▁connect	-8.86804
▁car	-8.87031
▁arrange	-8.87037
▁pre	-8.87122
te	-8.87146
▁chief	-8.87217
▁team	-8.87221
▁study	-8.87228
ist	-8.87231
▁mental	-8.87354
▁goods	-8.87518
ship	-8.87809
▁extremely	-8.88277
▁special	-8.88619
▁full	-8.88875
▁school	-8.89103
▁stage	-8.89125
▁young	-8.89328
▁transport	-8.89482
▁method	-8.89482
▁rough	-8.89483
▁left	-8.89628
▁M	-8.89763
▁draw	-8.89933
▁engage	-8.89936
ted	-8.89996
▁T	-8.90078
▁document	-8.90657
ng	-8.90674
▁wide	-8.90736
▁gain	-8.90744
▁world	-8.90794
▁walk	-8.90795
▁happen	-8.90847
▁P	-8.90925
▁receive	-8.90971
▁reason	-8.91184
▁At	-8.91203
up	-8.91223
▁create	-8.91234
▁direct	-8.91258
tion	-8.91391
▁slow	-8.9189
▁performance	-8.91993
▁keep	-8.9224
▁symbol	-8.9253
▁fabric	-8.92752
▁express	-8.92758
▁home	-8.92854
▁taste	-8.92996
▁current	-8.93013
▁militar	-8.93018
▁actual	-8.93111
▁court	-8.9346
▁spirit	-8.93687
▁four	-8.93753
▁terms	-8.94206
▁problem	-8.94216
▁age	-8.94228
▁add	-8.94256
▁outside	-8.94312
▁held	-8.94349
▁now	-8.94404
▁frequent	-8.94488
▁room	-8.94493
▁former	-8.94524
man	-8.94583
line	-8.94958
▁program	-8.95048
side	-8.95183
by	-8.95389
▁employ	-8.95443
▁passage	-8.95476
▁utter	-8.95477
▁Unit	-8.95714
▁secret	-8.9578
▁voice	-8.96166
▁Re	-8.9618
hose	-8.96185
▁characteriz	-8.96263
▁care	-8.96305
▁destroy	-8.96672
▁danger	-8.96686
▁display	-8.96695
▁loud	-8.96708
▁talk	-8.96806
▁lead	-8.97013
▁giv	-8.97035
▁inter	-8.97236
▁narrow	-8.97921
▁wall	-8.97959
▁pay	-8.97964
▁intense	-8.97965
▁reach	-8.97998
▁them	-8.98017
▁higher	-8.98484
most	-8.98554
▁offer	-8.98577
▁members	-8.98862
▁entit	-8.98893
▁plants	-8.99023
▁N	-8.99156
▁qualities	-8.9919
▁slight	-8.99209
▁red	-8.99284
▁State	-8.99289
▁variet	-8.99503
seen	-8.99767
▁mis	-8.99881
▁deal	-8.99993
ated	-9.00303
▁success	-9.00327
▁correct	-9.00366
▁argument	-9.00402
▁death	-9.0047
▁super	-9.00624
▁Tend	-9.00624
▁visibl	-9.00879
▁seri	-9.00954
▁Mad	-9.01099
using	-9.01166
▁sun	-9.01229
▁rest	-9.01546
▁plan	-9.01597
▁appear	-9.01685
▁electronic	-9.01777
▁Characteristic	-9.01789
▁extend	-9.01822
▁con	-9.02001
▁understand	-9.02135
▁proper	-9.02248
▁rules	-9.02534
▁stone	-9.02553
▁appropriate	-9.02634
ate	-9.02959
▁remain	-9.031
▁film	-9.03132
▁Extremely	-9.03186
▁range	-9.03375
▁term	-9.0347
om	-9.03601
▁friend	-9.03858
city	-9.03908
▁essential	-9.04419
▁middle	-9.04421
▁native	-9.04425
▁trouble	-9.04431
▁flat	-9.04437
▁claim	-9.04509
▁chemical	-9.04545
▁clothing	-9.04821
taken	-9.05003
ian	-9.05341
▁affect	-9.05716
▁unpleasant	-9.05767
▁heavy	-9.05787
▁gender	-9.05853
▁importance	-9.0587
▁noise	-9.05995
▁get	-9.0656
re	-9.06604
▁run	-9.06836
▁once	-9.06872
▁her	-9.06925
▁believe	-9.0704
▁completely	-9.07079
ne	-9.07134
▁role	-9.07152
▁progress	-9.07213
▁genre	-9.07287
▁fixed	-9.07568
▁account	-9.08494
▁context	-9.08528
▁brief	-9.08528
▁accord	-9.08529
▁reference	-9.08539
▁poor	-9.08549
▁fiction	-9.08568
▁sport	-9.08661
▁covering	-9.08767
▁emotional	-9.08821
▁spread	-9.08982
way	-9.09068
▁sai	-9.09216
▁called	-9.09579
▁fear	-9.0988
▁phenomen	-9.09935
▁contrast	-9.09942
▁al	-9.1
▁meat	-9.10005
▁possession	-9.1013
▁existence	-9.10145
▁expected	-9.10321
▁card	-9.10461
▁ancient	-9.10564
▁personal	-9.10934
an	-9.11055
▁stor	-9.11092
▁charge	-9.11126
▁difficulty	-9.11131
▁hear	-9.11226
▁multiple	-9.11363
▁prevent	-9.11363
▁upper	-9.11493
▁powerful	-9.11547
▁Characteri	-9.1156
▁possible	-9.11607
▁paper	-9.11612
▁hit	-9.11656
▁love	-9.1232
▁doing	-9.12399
day	-9.12648
▁mixture	-9.12817
▁beginning	-9.12817
▁society	-9.12879
▁obtain	-9.13033
▁share	-9.13156
▁active	-9.13167
▁production	-9.13277
▁feel	-9.13637
▁worth	-9.13765
▁start	-9.13981
ize	-9.14201
▁later	-9.14248
▁post	-9.14283
▁noun	-9.14285
▁future	-9.14302
▁hence	-9.14306
▁dance	-9.14311
▁makes	-9.14332
▁song	-9.14361
▁careful	-9.14374
▁19	-9.14405
▁easi	-9.14574
▁quick	-9.14864
▁doe	-9.15169
1	-9.15234
land	-9.15364
▁services	-9.15433
▁produc	-9.15601
▁branch	-9.15644
▁superior	-9.15775
▁include	-9.15825
▁dress	-9.15968
▁road	-9.16485
▁reduce	-9.16809
▁sail	-9.17045
▁times	-9.17085
▁women	-9.17292
c	-9.17454
▁centr	-9.17635
▁fashion	-9.17705
▁content	-9.17841
▁b	-9.18289
▁distinct	-9.18586
▁block	-9.1883
▁supply	-9.18833
▁temporar	-9.18861
▁vertical	-9.18937
▁following	-9.19049
▁runn	-9.19122
▁statu	-9.19166
▁i	-9.19203
▁wine	-9.19224
▁pitch	-9.19425
▁leave	-9.19458
▁belonging	-9.19672
ting	-9.20016
▁raise	-9.20018
what	-9.20041
▁project	-9.20127
▁avoid	-9.20131
course	-9.20144
▁enter	-9.2032
▁resource	-9.20391
▁machine	-9.20393
▁convey	-9.20397
▁evil	-9.20399
▁criminal	-9.20409
▁attractive	-9.20425
▁motor	-9.20432
▁serious	-9.20505
▁frame	-9.20528
▁purposes	-9.20704
▁organ	-9.20742
▁just	-9.20833
▁trans	-9.21034
▁there	-9.2111
▁points	-9.21294
around	-9.21329
▁party	-9.21447
▁ill	-9.21853
▁enjoy	-9.21979
▁religion	-9.21981
▁plural	-9.21981
▁marriage	-9.21985
▁major	-9.21997
▁perceived	-9.22251
▁edge	-9.2227
▁Contain	-9.22429
▁far	-9.22626
▁environment	-9.22933
▁bas	-9.22949
some	-9.23409
position	-9.23535
▁church	-9.23592
▁uncertain	-9.23594
▁suffer	-9.23601
▁deliberate	-9.23602
▁render	-9.23613
▁behind	-9.23674
▁European	-9.23807
▁sleep	-9.23834
▁necessary	-9.23915
ter	-9.24113
▁try	-9.2423
▁disorder	-9.24355
▁cloth	-9.24434
▁star	-9.24699
ible	-9.24713
▁pain	-9.24746
▁cross	-9.24914
▁bi	-9.25126
▁achieve	-9.25198
dinal	-9.25228
▁Involv	-9.25231
▁aspect	-9.25371
istic	-9.25689
▁eviden	-9.25711
▁rule	-9.25982
ur	-9.26085
▁verb	-9.2611
▁kill	-9.26435
▁loss	-9.26644
▁percepti	-9.26659
▁hands	-9.26798
▁medicine	-9.26898
▁sugar	-9.26898
▁pair	-9.26914
▁version	-9.26929
▁market	-9.26962
▁speed	-9.2705
▁treatment	-9.27149
▁attend	-9.2751
▁di	-9.27547
▁table	-9.27623
▁commonly	-9.27802
▁works	-9.27873
▁score	-9.27939
▁trade	-9.28143
▁origin	-9.28167
▁fight	-9.28398
▁figurative	-9.28593
▁consequence	-9.28593
▁Occurr	-9.28593
▁capacit	-9.28595
▁potential	-9.28597
▁behave	-9.28612
▁pressure	-9.28664
▁gather	-9.28685
▁topic	-9.28697
▁dry	-9.28699
▁pleasure	-9.28791
▁agreement	-9.28791
▁composition	-9.28805
▁forth	-9.28816
▁crime	-9.2888
▁actions	-9.29142
▁creat	-9.29197
i	-9.29329
▁w	-9.2942
▁exchange	-9.29659
ren	-9.29736
▁old	-9.29773
▁technique	-9.30317
▁penis	-9.30322
▁development	-9.30371
▁focus	-9.30541
▁defin	-9.30783
▁rais	-9.30822
▁alter	-9.30959
▁manage	-9.3106
▁drive	-9.31196
▁indicat	-9.31266
▁provid	-9.31639
▁prepare	-9.31648
▁protect	-9.31701
▁wheel	-9.31726
cross	-9.31958
▁cutt	-9.31975
▁picture	-9.32072
▁Full	-9.32075
▁inhabitant	-9.32079
▁medium	-9.3208
▁response	-9.32096
▁figure	-9.32149
▁duty	-9.32165
enemy	-9.32208
▁load	-9.32266
▁write	-9.32293
▁message	-9.32315
▁Cap	-9.32534
thus	-9.32575
▁U	-9.32766
▁cry	-9.32785
▁injur	-9.33074
▁curve	-9.33118
▁O	-9.33142
▁call	-9.33426
▁beat	-9.33548
▁whe	-9.33646
▁thick	-9.33671
▁wear	-9.33675
▁placed	-9.33749
▁demand	-9.33859
▁list	-9.33876
▁earth	-9.33928
▁taking	-9.33948
▁girl	-9.33971
▁concept	-9.33992
▁tend	-9.34161
▁touch	-9.34188
▁I	-9.34275
▁lay	-9.34342
▁path	-9.34469
▁flower	-9.34501
▁trick	-9.34611
▁half	-9.34697
▁solid	-9.34705
▁previous	-9.34761
bility	-9.34868
ar	-9.34945
board	-9.35549
▁construct	-9.35563
▁contact	-9.35675
▁doubt	-9.35675
▁tissue	-9.35675
▁unusual	-9.35677
▁choice	-9.35677
suitable	-9.3568
▁join	-9.35681
▁foolish	-9.35692
▁mid	-9.35704
▁want	-9.35736
▁string	-9.35761
▁user	-9.35795
▁habit	-9.35802
▁aircraft	-9.35809
ial	-9.35836
▁access	-9.35868
▁successful	-9.35905
▁handle	-9.35952
▁scale	-9.36041
▁forward	-9.36087
▁indicate	-9.36504
▁acid	-9.36598
x	-9.37035
▁playing	-9.3709
▁planet	-9.37395
▁equip	-9.37401
▁conceal	-9.37427
▁twist	-9.37528
▁positive	-9.37533
▁push	-9.37536
▁milk	-9.37548
▁On	-9.3757
▁sell	-9.3762
▁descent	-9.37657
▁finger	-9.3766
▁inferior	-9.37687
▁modern	-9.37692
▁payment	-9.37742
▁job	-9.37843
▁occasion	-9.37903
▁section	-9.37945
go	-9.38137
▁occurr	-9.38229
▁It	-9.38336
▁conditions	-9.38358
▁fluid	-9.38535
▁De	-9.38745
▁deriv	-9.38759
▁war	-9.38932
iness	-9.38956
▁video	-9.39414
▁convert	-9.39414
▁unexpected	-9.39415
▁garment	-9.39428
▁neck	-9.39466
▁weak	-9.395
▁created	-9.39552
▁anger	-9.39553
▁properties	-9.39603
▁mouth	-9.39622
▁identit	-9.39656
▁consideration	-9.39755
▁hot	-9.39779
▁ear	-9.40152
▁rock	-9.40577
▁leaves	-9.40748
▁transfer	-9.40765
▁advance	-9.40808
▁meeting	-9.41026
▁fine	-9.41174
▁stand	-9.41277
▁truth	-9.41324
▁weapon	-9.41337
▁permanent	-9.41338
▁minor	-9.4134
▁Excessive	-9.41343
▁cloud	-9.41359
▁price	-9.41368
▁grant	-9.41405
▁North	-9.41407
▁disturb	-9.41472
▁send	-9.41487
▁basic	-9.41514
▁meal	-9.41525
▁layer	-9.41623
▁per	-9.41807
▁severe	-9.41875
▁must	-9.41966
▁yield	-9.42007
▁partner	-9.42577
▁organism	-9.42654
▁loose	-9.4286
▁America	-9.43021
▁mix	-9.4309
▁exhibit	-9.43111
▁outer	-9.43142
▁test	-9.432
▁assign	-9.43224
is	-9.43228
▁inside	-9.43286
▁obligation	-9.43366
▁calm	-9.43366
▁how	-9.4337
▁say	-9.43396
▁code	-9.4343
▁firm	-9.43517
▁via	-9.43955
▁men	-9.44034
▁fat	-9.44203
early	-9.44276
▁attitude	-9.44622
▁receiv	-9.44628
▁mean	-9.44641
ready	-9.44732
▁angle	-9.44745
▁dead	-9.44816
▁breath	-9.44844
▁divid	-9.44886
▁release	-9.44923
▁eat	-9.45093
▁cell	-9.45185
▁labor	-9.45258
▁illegal	-9.45298
▁application	-9.45301
▁chance	-9.45339
natural	-9.45393
▁policy	-9.4549
▁entertain	-9.45495
▁student	-9.45561
▁hang	-9.45723
▁seat	-9.45948
▁o	-9.46191
▁wheels	-9.46324
▁beliefs	-9.46386
▁store	-9.46496
▁obtained	-9.47052
▁hi	-9.47074
hood	-9.472
▁listen	-9.4728
▁pleasant	-9.47338
▁visual	-9.47352
▁health	-9.47375
▁sky	-9.474
▁decision	-9.47401
▁help	-9.47482
▁played	-9.47666
▁working	-9.47748
nough	-9.48041
▁composed	-9.4808
▁agent	-9.48287
▁intend	-9.48467
▁commit	-9.48521
▁procedure	-9.48565
▁Gree	-9.48592
▁issue	-9.48713
▁vessel	-9.48843
▁stick	-9.48925
▁presen	-9.49033
▁Free	-9.49081
to	-9.49101
▁wrong	-9.4932
▁straight	-9.49341
▁last	-9.49355
▁preparat	-9.49403
▁Like	-9.49423
▁Earth	-9.49424
▁opposition	-9.49425
▁slender	-9.49432
▁financial	-9.49467
▁occurs	-9.49473
▁particle	-9.49489
▁complex	-9.49527
▁title	-9.49542
▁coat	-9.49584
▁removed	-9.49586
▁basis	-9.49632
▁outward	-9.49709
▁Serv	-9.4979
▁protection	-9.4983
▁gun	-9.49879
▁ideal	-9.50073
▁defeat	-9.5012
shap	-9.50146
▁partial	-9.50363
▁broke	-9.50411
ling	-9.50868
▁blow	-9.51027
▁network	-9.51365
▁feelings	-9.51479
▁responsibilit	-9.5155
▁muscle	-9.51551
▁harsh	-9.51551
▁earlie	-9.51557
▁medical	-9.51618
▁quiet	-9.51658
▁cold	-9.51694
▁measurement	-9.51746
▁televis	-9.51771
▁conscious	-9.51787
▁representation	-9.51803
p	-9.51901
▁bit	-9.51928
▁broad	-9.51958
▁roll	-9.52165
▁divide	-9.52197
▁previously	-9.52636
▁ten	-9.5267
▁smooth	-9.52758
▁possess	-9.52991
work	-9.53166
▁separat	-9.53602
▁establish	-9.5362
▁step	-9.53683
▁German	-9.53686
▁pull	-9.53703
▁immediate	-9.53723
▁search	-9.53724
▁private	-9.53725
▁radio	-9.53733
▁bind	-9.53736
▁Jew	-9.53751
N	-9.53849
▁cast	-9.53925
▁Show	-9.54037
▁connection	-9.54051
ese	-9.54832
▁Chin	-9.54838
▁results	-9.54895
▁circumstances	-9.55078
▁fully	-9.55207
▁nation	-9.55231
▁media	-9.5525
▁seed	-9.55442
▁decorat	-9.55461
▁addition	-9.55594
▁stop	-9.55686
▁sensation	-9.55712
▁simple	-9.55877
▁teeth	-9.55945
▁countries	-9.5595
▁occurrence	-9.55966
▁delay	-9.55977
▁Brit	-9.56053
▁empty	-9.56061
▁pro	-9.56067
▁exercise	-9.56077
▁catch	-9.56087
▁had	-9.56105
dden	-9.56136
▁construction	-9.56179
▁century	-9.56235
▁key	-9.56291
▁confidence	-9.56369
▁remov	-9.56462
▁electrical	-9.56508
▁require	-9.56515
▁notice	-9.56669
▁nothing	-9.56911
sh	-9.56931
▁story	-9.5697
▁exact	-9.57062
▁affected	-9.57218
2	-9.57666
▁opponent	-9.57802
▁involve	-9.57803
▁inclin	-9.57963
▁attract	-9.57973
▁accomplish	-9.58128
▁insert	-9.58152
▁detect	-9.58172
▁romantic	-9.58218
▁request	-9.58222
▁approach	-9.58334
▁combination	-9.58349
▁boat	-9.58444
▁among	-9.58464
▁difference	-9.58566
▁hide	-9.58624
red	-9.58628
▁combine	-9.58645
▁tra	-9.58652
▁professional	-9.58673
f	-9.5878
▁night	-9.58791
▁season	-9.59031
▁container	-9.59059
▁total	-9.59199
▁opening	-9.59449
▁bright	-9.59513
▁seem	-9.59697
▁highly	-9.59783
▁objection	-9.59835
▁suit	-9.59995
▁press	-9.60007
▁tone	-9.6006
▁model	-9.60245
▁advantage	-9.60457
▁benefit	-9.60544
▁circle	-9.60544
▁significant	-9.60544
▁volume	-9.60544
▁reflect	-9.60544
▁next	-9.60544
▁entire	-9.60545
kept	-9.60546
▁ordinary	-9.60546
▁flesh	-9.60548
▁bitter	-9.60559
▁station	-9.60588
▁few	-9.60598
▁worthless	-9.60601
▁stay	-9.60613
▁wool	-9.60626
▁glass	-9.60688
rising	-9.60705
▁extended	-9.60777
▁theory	-9.60801
stead	-9.60816
▁artistic	-9.60891
▁sale	-9.60909
▁leader	-9.60921
parent	-9.60937
▁litera	-9.6094
▁spoke	-9.61036
▁semi	-9.61068
▁independent	-9.61284
paid	-9.61328
nt	-9.61461
▁clothes	-9.61649
▁shin	-9.61668
ers	-9.61719
▁standing	-9.6197
▁For	-9.62003
▁strip	-9.62152
▁provides	-9.62247
▁maintain	-9.6254
▁damage	-9.62611
▁error	-9.62661
▁relation	-9.62694
▁favor	-9.62808
A	-9.62898
▁English	-9.62925
▁target	-9.62925
▁would	-9.62929
▁axis	-9.62965
▁adjust	-9.62983
▁boundar	-9.62985
▁better	-9.63038
▁Produc	-9.6305
ological	-9.63076
▁sum	-9.63158
▁strike	-9.63171
▁joint	-9.63191
▁science	-9.63227
▁deceive	-9.63267
▁operat	-9.63378
▁aim	-9.6347
▁intentional	-9.63648
▁praise	-9.64211
ia	-9.64336
ern	-9.64433
▁nose	-9.64481
▁Dis	-9.64536
▁clean	-9.6461
▁assume	-9.64715
ought	-9.64719
▁rear	-9.6473
it	-9.64732
▁advocate	-9.64819
▁corrupt	-9.65167
▁finish	-9.65179
▁bar	-9.65198
fic	-9.65246
▁hat	-9.65334
▁impression	-9.65437
▁casual	-9.65438
▁bottom	-9.65438
▁profit	-9.65482
▁appeal	-9.65486
▁beverage	-9.65584
▁reality	-9.65667
▁find	-9.65755
ually	-9.65823
▁ice	-9.66115
ably	-9.66253
▁win	-9.66352
▁tele	-9.66756
▁watch	-9.6684
▁By	-9.66878
▁address	-9.66968
▁critical	-9.67059
▁local	-9.67087
▁tight	-9.67177
▁lives	-9.67286
▁surrounding	-9.67299
▁suggest	-9.67402
▁wave	-9.67415
▁components	-9.67711
▁excess	-9.67787
▁iron	-9.67809
▁disagree	-9.67864
▁Over	-9.67865
▁river	-9.67866
▁border	-9.6787
▁High	-9.67886
▁spend	-9.67892
▁thread	-9.67892
▁sufficient	-9.67894
▁floor	-9.67895
▁ingredient	-9.67915
▁cord	-9.67922
▁fresh	-9.67946
▁v	-9.67997
▁feet	-9.68063
▁Cover	-9.68068
▁communication	-9.6814
▁meet	-9.68278
▁signal	-9.68367
▁applied	-9.68403
▁heart	-9.68413
▁exceptional	-9.68465
▁operate	-9.68486
▁W	-9.68551
▁plann	-9.68642
▁tool	-9.6865
▁center	-9.68673
▁eight	-9.68674
▁confused	-9.68784
ew	-9.68909
▁carri	-9.68929
▁conform	-9.69163
▁command	-9.69303
▁elevat	-9.69359
▁trust	-9.69635
▁dimension	-9.69657
▁even	-9.69721
▁Roman	-9.6994
▁audi	-9.6995
▁factor	-9.69959
▁favour	-9.70065
▁dish	-9.70132
▁sports	-9.70136
▁possib	-9.70184
▁occur	-9.702
▁restrict	-9.70365
▁civil	-9.70381
▁category	-9.70428
▁competition	-9.70428
▁Specific	-9.7043
▁courage	-9.70433
▁aggressive	-9.70435
▁outcome	-9.7044
▁heaven	-9.70445
▁wild	-9.70445
▁fair	-9.70484
▁accurate	-9.70485
▁electric	-9.70551
▁strict	-9.70684
▁fur	-9.70821
▁oil	-9.70904
▁judge	-9.70989
▁h	-9.71071
▁habitual	-9.71187
▁bear	-9.71291
▁angry	-9.71326
▁effective	-9.71383
▁born	-9.7145
▁pale	-9.71527
▁unknow	-9.71574
▁18	-9.71745
▁learn	-9.71757
▁sides	-9.71859
ise	-9.71978
▁counter	-9.72161
ief	-9.72228
▁read	-9.72232
▁adopt	-9.7236
▁directly	-9.72459
▁adapt	-9.7253
▁report	-9.7284
▁contract	-9.72857
▁steal	-9.72896
▁wish	-9.72974
▁suspend	-9.7306
▁copy	-9.73065
▁affair	-9.73089
▁bearing	-9.73098
▁biological	-9.731
▁attribute	-9.73101
▁instruction	-9.73108
▁scene	-9.73116
▁discussion	-9.7315
▁circular	-9.73192
▁extension	-9.73247
▁spiritual	-9.73299
▁seek	-9.7336
▁affection	-9.73434
▁page	-9.73452
▁pack	-9.73576
▁economic	-9.73672
▁tail	-9.73679
▁band	-9.7377
ery	-9.73825
▁prepared	-9.73889
▁five	-9.74158
▁So	-9.74223
▁spring	-9.74263
ious	-9.74265
▁double	-9.74349
▁corresponding	-9.7437
▁bound	-9.74476
▁fly	-9.74761
▁obscure	-9.7481
▁fore	-9.74918
▁Eas	-9.75214
▁waste	-9.75273
▁sweet	-9.75575
▁mistake	-9.75587
▁fr	-9.75714
▁scienti	-9.75728
▁Latin	-9.75762
▁research	-9.75762
▁street	-9.75762
▁initial	-9.75763
▁Great	-9.75764
▁gradual	-9.75771
▁sentence	-9.75773
▁timber	-9.75773
▁Under	-9.75777
▁dwell	-9.75794
▁fan	-9.75799
▁Mark	-9.758
▁odd	-9.7581
▁answer	-9.75845
▁continuous	-9.75846
▁moment	-9.7586
▁begin	-9.75902
▁Christian	-9.75903
▁commercial	-9.75911
▁confine	-9.75911
▁dull	-9.75955
▁undergo	-9.75968
reof	-9.75997
▁referr	-9.76007
▁grain	-9.76039
▁joy	-9.76073
▁bill	-9.76085
▁nor	-9.76098
▁breed	-9.76133
▁green	-9.76149
▁becoming	-9.76315
▁feed	-9.76317
▁furnish	-9.76346
▁surround	-9.7638
▁V	-9.76511
▁embarrass	-9.76841
phone	-9.76861
▁logic	-9.76874
appening	-9.76999
▁South	-9.7714
▁Fro	-9.77169
▁los	-9.7731
▁god	-9.77311
▁custom	-9.77328
▁verbal	-9.77367
▁ring	-9.7741
▁determine	-9.77422
ber	-9.77504
▁then	-9.77513
▁track	-9.77929
▁author	-9.77967
coming	-9.78024
▁participate	-9.78045
▁profession	-9.78146
▁broadcast	-9.78226
▁select	-9.78348
▁incorrect	-9.7854
▁homosexual	-9.7854
▁photograph	-9.78541
▁roof	-9.78541
▁square	-9.78541
▁extraordinar	-9.78542
▁third	-9.78544
▁shot	-9.78545
▁pleasing	-9.78548
▁creature	-9.78564
▁further	-9.78664
▁expressed	-9.78699
▁component	-9.78712
▁setting	-9.78716
▁guard	-9.78725
▁informal	-9.78842
cal	-9.78861
▁rich	-9.78973
▁sight	-9.78988
w	-9.79243
light	-9.79264
right	-9.79357
stream	-9.79393
mission	-9.7947
worthy	-9.79627
▁compound	-9.7963
▁agree	-9.79665
▁shar	-9.7981
▁preceding	-9.79825
▁climb	-9.79966
▁gas	-9.80488
▁destin	-9.80733
▁declare	-9.80839
▁hope	-9.80864
▁drawing	-9.80945
▁fault	-9.80959
▁uses	-9.80995
▁2	-9.81055
▁West	-9.81071
▁r	-9.8113
▁secure	-9.81155
ency	-9.81158
ities	-9.8118
▁perfect	-9.81321
ification	-9.81393
▁artificial	-9.81397
▁patient	-9.81397
▁platform	-9.81397
▁external	-9.81398
▁might	-9.814
▁nei	-9.81402
▁technical	-9.81412
▁residence	-9.81413
▁conversation	-9.81417
▁judgment	-9.81418
▁criticism	-9.81434
▁community	-9.81446
▁web	-9.81448
▁salt	-9.81463
▁dirt	-9.81477
▁bodies	-9.81487
▁final	-9.81511
▁moon	-9.81519
▁downward	-9.81543
▁Japanese	-9.81544
▁settle	-9.81549
▁repeated	-9.81559
▁sweeten	-9.8166
▁Suit	-9.81679
▁escape	-9.8175
▁parallel	-9.81772
▁ho	-9.81881
▁acquire	-9.82148
▁boy	-9.82168
'	-9.82187
▁warm	-9.82287
▁row	-9.82357
▁mode	-9.83016
▁Intern	-9.8302
▁fold	-9.83101
▁developed	-9.8312
tary	-9.83166
▁institution	-9.8317
8	-9.83208
▁debate	-9.83255
▁typical	-9.83587
▁primar	-9.83728
▁intention	-9.83744
▁ye	-9.83783
▁hunt	-9.84003
▁oppos	-9.84092
▁he	-9.84133
▁foreign	-9.84167
▁g	-9.84179
▁formation	-9.84262
▁remote	-9.84338
▁equivalent	-9.84338
▁violence	-9.84342
▁reputation	-9.84346
▁trail	-9.84347
▁persistent	-9.84356
▁Money	-9.84367
▁slope	-9.84404
▁Giv	-9.84407
▁excitement	-9.84408
▁mutual	-9.84422
▁flight	-9.84548
▁Tak	-9.8469
ified	-9.84696
connected	-9.8474
▁tender	-9.84866
▁hour	-9.84932
ine	-9.84985
▁publish	-9.84986
▁stem	-9.84988
place	-9.85017
▁variable	-9.8507
▁Act	-9.85203
▁greatly	-9.85251
▁breaking	-9.85264
▁avail	-9.8532
▁bo	-9.85369
▁develop	-9.85519
▁aware	-9.85585
▁plate	-9.85879
main	-9.86085
▁union	-9.86116
▁engag	-9.86171
▁20	-9.86244
▁predict	-9.8627
▁concentrat	-9.86274
▁necessar	-9.8676
▁extra	-9.87093
▁communicate	-9.87152
▁theme	-9.87256
▁Consist	-9.87335
▁rubb	-9.87336
▁absorb	-9.87369
▁insignificant	-9.87369
▁obstacle	-9.87369
▁beautiful	-9.87369
▁irregular	-9.87369
▁cool	-9.87371
▁reveal	-9.87371
▁education	-9.87374
▁concrete	-9.87376
▁stress	-9.87393
▁France	-9.87394
▁fasten	-9.874
▁safe	-9.87403
▁explain	-9.87403
▁punishment	-9.87412
▁birth	-9.87465
▁bond	-9.87477
▁estate	-9.87505
▁debt	-9.87522
▁approximate	-9.87547
▁dog	-9.87591
▁saying	-9.87623
▁grade	-9.87664
▁brand	-9.87705
▁Asian	-9.87743
▁continu	-9.87911
▁primary	-9.8801
▁ask	-9.88024
▁No	-9.88035
▁wait	-9.88162
der	-9.88225
▁trad	-9.88309
cycle	-9.88453
▁spot	-9.88688
▁memor	-9.89009
▁ga	-9.89039
▁distress	-9.89116
▁cooking	-9.89134
▁determined	-9.89223
▁pr	-9.89282
▁date	-9.89361
▁pipe	-9.89513
▁ex	-9.89665
▁measured	-9.89711
▁mo	-9.89777
▁quantit	-9.8981
atomic	-9.89988
▁late	-9.89998
▁centre	-9.89998
▁faci	-9.90028
▁rid	-9.9003
h	-9.90287
▁engine	-9.90306
▁All	-9.90456
▁box	-9.90476
▁Out	-9.90484
▁drop	-9.90492
▁candidate	-9.90494
▁ceremony	-9.90494
▁undesirable	-9.90494
▁stilt	-9.90494
▁fellow	-9.90494
▁fundamental	-9.90495
▁symptom	-9.90496
▁unique	-9.90511
▁tendency	-9.90514
▁delight	-9.90521
▁intellectual	-9.90521
▁stretch	-9.90529
▁wife	-9.9053
▁combat	-9.90533
▁practical	-9.90572
▁sort	-9.9058
▁appears	-9.90584
▁purchase	-9.9059
▁penalt	-9.90592
▁sand	-9.90594
▁smell	-9.9065
▁brain	-9.90657
▁molecule	-9.90725
▁restriction	-9.90728
▁heavi	-9.9082
▁groups	-9.90906
▁soldier	-9.90921
▁continue	-9.91192
▁sp	-9.91393
▁d	-9.91477
version	-9.9155
▁mountain	-9.91551
fare	-9.91628
▁anti	-9.91686
▁plug	-9.92143
▁la	-9.92191
▁cons	-9.92233
▁rate	-9.92286
▁po	-9.9239
▁carbon	-9.92435
▁originat	-9.9282
▁she	-9.92913
▁widely	-9.93037
▁happening	-9.93161
ier	-9.9324
▁magic	-9.93258
▁ca	-9.9328
▁India	-9.93391
▁confuse	-9.9355
▁map	-9.93578
▁ethnic	-9.93588
▁dishonest	-9.93719
▁exploit	-9.93719
▁obvious	-9.93719
▁coarse	-9.9372
▁impulse	-9.9372
▁England	-9.9372
▁unspecifi	-9.9375
established	-9.93751
▁terrible	-9.93755
▁Sexual	-9.93767
▁dramatic	-9.93797
▁still	-9.93801
▁depression	-9.93818
▁rope	-9.93825
▁distant	-9.93827
▁God	-9.93839
▁lift	-9.93884
▁fast	-9.93952
▁vision	-9.93963
▁texture	-9.93985
hold	-9.94025
▁Mak	-9.9408
▁sing	-9.94126
▁Indian	-9.94181
▁blade	-9.9423
▁objective	-9.94319
▁directions	-9.94322
▁cost	-9.94337
set	-9.94406
▁erect	-9.94726
de	-9.94788
▁impossib	-9.9479
▁industr	-9.94811
▁willing	-9.95007
▁trip	-9.95011
▁See	-9.95078
▁resident	-9.95326
▁remarkabl	-9.95529
▁repeat	-9.95778
▁enclos	-9.95828
▁deliver	-9.95873
▁G	-9.96072
▁mechanical	-9.96093
▁combin	-9.96308
▁sin	-9.9644
▁execute	-9.96848
▁tax	-9.96896
dy	-9.96929
▁honour	-9.96943
▁consum	-9.9697
▁sect	-9.96982
b	-9.97015
▁abstract	-9.97053
▁column	-9.97053
▁strateg	-9.97053
▁discret	-9.97053
▁vague	-9.97053
▁article	-9.97054
▁conclusion	-9.97054
▁identify	-9.97054
▁French	-9.97056
▁lake	-9.97058
▁literature	-9.9706
▁apparent	-9.97061
▁rush	-9.97061
▁employee	-9.9707
▁transaction	-9.9707
▁prior	-9.97072
▁Most	-9.97075
▁Europe	-9.97078
▁observation	-9.97104
▁wet	-9.9711
▁abundance	-9.97115
▁wealth	-9.97157
▁unwa	-9.97167
▁x	-9.97181
▁currency	-9.9719
▁happy	-9.97195
▁offensive	-9.97304
▁insect	-9.97311
▁reject	-9.97342
ium	-9.97364
▁generation	-9.97436
▁file	-9.97499
▁essen	-9.97505
▁threatening	-9.97636
▁establishment	-9.97687
▁cup	-9.97968
▁think	-9.98096
▁owner	-9.98146
specially	-9.98206
▁shock	-9.9828
comfort	-9.98417
▁territor	-9.98508
time	-9.98622
▁plane	-9.98658
▁insult	-9.98843
▁bone	-9.98917
▁contemptibl	-9.98952
id	-9.9901
▁Easter	-9.99141
▁Ca	-9.99142
▁national	-9.99276
▁transmit	-9.99337
▁stream	-9.99411
u	-9.99472
▁match	-9.99552
▁absolute	-9.99571
▁apart	-9.99643
▁describe	-9.99652
▁promise	-9.99676
▁miss	-9.99739
▁carrie	-9.99895
▁depend	-9.9992
▁should	-10.0006
▁rail	-10.0015
▁drag	-10.0024
ture	-10.0027
▁strange	-10.004
▁twelve	-10.005
▁conflict	-10.005
▁mild	-10.005
▁vulgar	-10.005
▁mechanism	-10.005
▁Exist	-10.0051
▁height	-10.0051
▁wicked	-10.0051
▁Possess	-10.0051
▁freedom	-10.0051
▁silk	-10.0051
▁scoop	-10.0051
▁loan	-10.0052
▁cheat	-10.0053
ffic	-10.0053
▁exclusive	-10.0054
▁rigid	-10.0054
▁definite	-10.0056
▁repair	-10.0058
▁bread	-10.0061
▁desirable	-10.0061
▁link	-10.0062
▁rotation	-10.0067
▁internal	-10.0068
▁alternate	-10.0069
▁zero	-10.0073
▁co	-10.008
cepti	-10.0085
▁characteris	-10.0094
▁tell	-10.0104
▁discharge	-10.0106
▁tall	-10.0108
▁door	-10.011
▁manufactured	-10.0111
▁grasp	-10.0116
▁rise	-10.0123
▁cho	-10.0126
▁acceptable	-10.0139
▁teaching	-10.0143
oven	-10.0145
▁hostil	-10.0147
▁familiar	-10.0159
▁cells	-10.0166
▁organisms	-10.0178
▁improve	-10.0183
▁literal	-10.0186
▁rain	-10.0202
▁organiz	-10.0204
lway	-10.0219
fitting	-10.0222
▁hole	-10.0223
▁puzzle	-10.0225
site	-10.0226
bound	-10.0252
▁logical	-10.0268
▁humans	-10.0273
▁m	-10.028
▁thinking	-10.0287
▁pure	-10.0289
ida	-10.0302
normally	-10.0333
▁L	-10.0348
▁wel	-10.0358
▁Lea	-10.0381
▁Africa	-10.0388
▁artist	-10.0394
▁sit	-10.0399
▁Ma	-10.0401
tupid	-10.0401
▁uniform	-10.0402
▁visit	-10.0403
▁accompani	-10.0404
longing	-10.0405
▁illicit	-10.0407
▁inappropriate	-10.0407
▁snack	-10.0407
▁comparison	-10.0407
▁wedding	-10.0407
▁domestic	-10.0407
▁split	-10.0407
▁sovereign	-10.0407
▁weather	-10.0408
▁vegetable	-10.0408
helter	-10.0408
▁arrogant	-10.0408
▁battle	-10.041
▁plain	-10.0411
▁occupation	-10.0411
▁cream	-10.0412
▁summon	-10.0412
▁rod	-10.0412
▁discover	-10.0413
▁anxiety	-10.0414
▁atmospher	-10.0414
▁grass	-10.0414
▁excellent	-10.0419
▁dislike	-10.0424
▁fund	-10.0427
ology	-10.0428
were	-10.0428
▁vital	-10.043
▁illness	-10.043
▁choose	-10.0437
▁tired	-10.0438
▁shoot	-10.044
▁studie	-10.0443
▁badly	-10.0443
▁kick	-10.0447
▁indication	-10.0448
▁philosophy	-10.0465
▁additional	-10.0465
▁br	-10.0476
ah	-10.0477
▁ocean	-10.0502
▁bent	-10.0504
▁reaction	-10.0506
dimensional	-10.0528
▁division	-10.0533
▁Th	-10.0536
▁enclose	-10.0539
▁root	-10.0553
▁excellen	-10.0562
▁goals	-10.0567
▁measur	-10.0577
▁lot	-10.0579
water	-10.0583
▁reduc	-10.0591
▁substitute	-10.0601
▁refuse	-10.0601
▁fo	-10.0611
▁burn	-10.0621
▁best	-10.0648
scope	-10.0663
▁shade	-10.0664
▁defect	-10.0667
S	-10.0675
▁generate	-10.0683
▁constant	-10.0686
▁refer	-10.0693
▁exists	-10.0706
▁keeping	-10.071
▁seeming	-10.0754
▁cook	-10.0766
▁govern	-10.0766
▁sick	-10.0766
▁assembl	-10.0768
▁amuse	-10.0768
▁fool	-10.0775
▁duties	-10.0778
▁preparing	-10.0778
▁expert	-10.0778
▁Support	-10.0778
▁impact	-10.0778
▁circuit	-10.0778
▁ecc	-10.0779
▁southern	-10.0779
▁prominent	-10.0779
▁vein	-10.0779
▁examination	-10.078
▁preference	-10.078
▁trait	-10.078
▁powder	-10.0782
▁cotton	-10.0782
▁tough	-10.0785
▁limb	-10.0789
▁risk	-10.0791
▁though	-10.0791
▁induce	-10.0792
▁requirement	-10.0796
▁genuine	-10.0797
king	-10.08
▁coast	-10.08
▁police	-10.0801
▁African	-10.0802
▁solution	-10.0802
▁decoration	-10.0809
▁supposed	-10.0813
▁usage	-10.0819
▁lie	-10.082
▁activities	-10.0822
▁Wear	-10.0823
▁playful	-10.0823
O	-10.0828
▁ornamental	-10.0832
▁im	-10.084
▁Medi	-10.0843
▁capture	-10.0846
▁slide	-10.0865
▁writer	-10.0875
▁adorn	-10.0879
▁interval	-10.0892
▁town	-10.0893
▁Mars	-10.0898
▁pin	-10.091
▁Capab	-10.0911
▁games	-10.093
▁li	-10.0955
▁contriv	-10.0959
▁driv	-10.0959
pitch	-10.097
▁valid	-10.0998
9	-10.1017
▁Whi	-10.1025
▁adult	-10.1027
▁compris	-10.105
▁paint	-10.1051
▁improper	-10.1065
▁compos	-10.1074
style	-10.109
▁philosoph	-10.1101
iddle	-10.1111
▁grand	-10.1131
ied	-10.1133
▁imperfect	-10.1142
▁exert	-10.1143
elf	-10.1143
▁screen	-10.1149
▁complain	-10.115
▁port	-10.1158
terior	-10.1162
▁celestial	-10.1162
▁elaborate	-10.1162
▁medicinal	-10.1162
▁satisfy	-10.1162
▁simultaneous	-10.1162
▁Concern	-10.1162
▁mislead	-10.1162
▁crystal	-10.1162
▁blind	-10.1162
▁groove	-10.1162
▁yellow	-10.1162
▁subsequent	-10.1162
▁racing	-10.1162
▁Follow	-10.1162
▁implie	-10.1163
▁mink	-10.1163
▁wrongdo	-10.1163
▁recurring	-10.1163
▁temperature	-10.1163
▁click	-10.1163
▁Express	-10.1163
▁ownership	-10.1164
▁subordinate	-10.1165
▁indefinite	-10.1165
▁talent	-10.1166
▁impressive	-10.1166
▁guilt	-10.1166
▁appetite	-10.1167
▁jump	-10.1167
▁winter	-10.1168
▁cultural	-10.1169
▁obstruction	-10.1171
▁divine	-10.1172
▁prone	-10.1174
standing	-10.1176
▁encourage	-10.1176
▁War	-10.1181
▁baby	-10.1182
▁breast	-10.1182
▁propose	-10.1183
▁patroniz	-10.1183
known	-10.1186
▁geographical	-10.1189
▁branches	-10.1196
▁prostitute	-10.1201
▁ornament	-10.1201
▁coin	-10.1206
▁master	-10.1206
▁cavit	-10.1227
▁vote	-10.1228
▁arrow	-10.1236
▁audio	-10.1237
▁noble	-10.1251
▁overwhelming	-10.1253
▁bag	-10.1255
▁craft	-10.1264
coloured	-10.1285
▁resist	-10.1287
nted	-10.1296
▁movie	-10.1297
▁award	-10.1315
▁contempt	-10.1341
til	-10.1343
lone	-10.1346
▁temper	-10.1351
▁processes	-10.1364
ural	-10.1371
▁supporting	-10.1379
▁burning	-10.1394
den	-10.1417
▁pen	-10.1434
▁bowl	-10.144
▁intervals	-10.144
▁aid	-10.1465
▁horizontal	-10.1466
sis	-10.1474
lastic	-10.1475
▁approv	-10.1493
▁silver	-10.1521
▁excite	-10.1535
▁pick	-10.1545
part	-10.155
▁compensat	-10.1552
ened	-10.1557
ball	-10.1557
neath	-10.1559
▁unnecessar	-10.1562
▁encounter	-10.1562
▁significance	-10.1562
▁Central	-10.1562
▁administer	-10.1562
▁facult	-10.1562
▁depict	-10.1562
▁ritual	-10.1562
▁flavour	-10.1562
▁clever	-10.1562
▁gentle	-10.1562
▁vowel	-10.1562
▁basketball	-10.1562
▁disrupt	-10.1563
▁decay	-10.1564
▁contest	-10.1565
our	-10.1565
▁accusation	-10.1566
▁swell	-10.1566
▁random	-10.1567
▁Last	-10.1568
▁ancestor	-10.157
▁awkward	-10.157
▁election	-10.1579
▁university	-10.1582
▁shift	-10.1583
▁architecture	-10.1586
▁achievement	-10.1591
▁officer	-10.1601
▁fix	-10.1602
▁subtle	-10.1609
▁publication	-10.1619
▁recently	-10.1629
▁desir	-10.164
▁sole	-10.1646
▁speaker	-10.165
▁sphere	-10.1653
▁assist	-10.1657
▁changes	-10.1657
▁minute	-10.166
▁consume	-10.1665
▁preced	-10.1665
▁bed	-10.1666
▁psycholog	-10.1682
▁Ra	-10.1703
▁replace	-10.1705
ood	-10.1717
▁histor	-10.1719
▁stimulate	-10.1732
▁farm	-10.1754
▁surpris	-10.1764
led	-10.1768
▁curv	-10.1768
and	-10.178
half	-10.1783
free	-10.1785
▁drinking	-10.1789
active	-10.1794
▁tie	-10.1796
▁contrar	-10.1801
▁norm	-10.1817
entry	-10.1829
cap	-10.1837
00	-10.1841
electricity	-10.1855
▁holes	-10.1879
▁Part	-10.1884
▁abnormal	-10.1885
▁metaphorical	-10.1889
▁relationships	-10.1901
▁restrain	-10.1905
▁onto	-10.1923
▁board	-10.1931
oken	-10.1931
▁actor	-10.1933
▁prefer	-10.1937
oid	-10.1938
▁fee	-10.1938
▁Ne	-10.1938
▁attain	-10.1952
▁estimate	-10.1954
▁situat	-10.196
▁achiev	-10.1967
▁abrupt	-10.1979
▁faint	-10.1979
▁monument	-10.1979
▁perspective	-10.1979
▁themselves	-10.1979
▁agitate	-10.1979
▁responsible	-10.1979
▁intensity	-10.1979
▁adhesi	-10.1979
▁effeminate	-10.1979
▁grind	-10.1979
▁Describ	-10.1979
▁Common	-10.1979
▁club	-10.1979
▁cousin	-10.1979
▁grammatical	-10.1979
▁Open	-10.198
▁unimportant	-10.1983
▁elegant	-10.1983
▁sample	-10.1983
▁Complete	-10.1984
shed	-10.1986
▁upset	-10.1987
▁soil	-10.1987
▁happiness	-10.199
▁bodi	-10.1997
▁burden	-10.1998
▁indulgence	-10.2
▁defense	-10.2
▁nuclear	-10.2001
▁crowd	-10.2007
▁relevan	-10.2007
▁identi	-10.2017
▁resemble	-10.2024
eaten	-10.2026
▁defensi	-10.2027
▁infant	-10.2028
▁directed	-10.2032
▁shoulder	-10.2033
▁blue	-10.2038
sually	-10.2041
▁chao	-10.2043
▁shop	-10.2056
▁backward	-10.2057
▁parent	-10.2061
▁please	-10.2073
▁engineering	-10.2078
▁warning	-10.2098
▁comfort	-10.2101
▁stock	-10.2103
▁rotate	-10.2107
▁check	-10.2119
▁privilege	-10.2119
▁customar	-10.2124
▁lo	-10.2126
▁trou	-10.2134
▁shoe	-10.2139
▁circumstance	-10.2146
▁compar	-10.216
H	-10.2165
▁myth	-10.219
▁net	-10.2207
▁emit	-10.2217
D	-10.2218
▁painting	-10.2221
▁crack	-10.2223
sumption	-10.2226
▁tradition	-10.2235
▁inspir	-10.2242
▁sent	-10.225
rawn	-10.225
▁phone	-10.2251
▁bend	-10.2256
▁Br	-10.2257
▁com	-10.2261
▁dri	-10.2273
▁invent	-10.2274
▁admir	-10.2276
▁couple	-10.228
cation	-10.2291
▁proportion	-10.2306
▁forest	-10.2318
▁endure	-10.2318
▁occasional	-10.2325
▁Mor	-10.2326
▁examine	-10.2326
▁know	-10.2332
▁Oppos	-10.2345
▁discern	-10.2351
▁appreciat	-10.2371
▁worse	-10.2377
▁precise	-10.2379
dependent	-10.2392
▁host	-10.2395
▁chang	-10.2403
▁worship	-10.2404
▁threat	-10.2406
▁formula	-10.2413
▁complement	-10.2414
▁Difficult	-10.2414
▁explosi	-10.2414
▁surrender	-10.2414
▁Small	-10.2414
▁gift	-10.2414
▁implement	-10.2414
▁steam	-10.2414
▁session	-10.2414
▁peculiar	-10.2414
▁stroke	-10.2414
▁stamp	-10.2414
▁abandon	-10.2414
▁ghost	-10.2414
▁timid	-10.2414
▁cruel	-10.2414
▁stomach	-10.2414
▁nervous	-10.2414
▁flag	-10.2415
▁mood	-10.2415
▁snow	-10.2416
▁sheet	-10.2416
ization	-10.2418
▁digital	-10.242
old	-10.2421
▁manifestation	-10.2422
▁father	-10.2422
▁withdraw	-10.2422
▁cow	-10.2423
▁corner	-10.2428
▁carriage	-10.243
▁sauce	-10.2432
▁curl	-10.2435
▁week	-10.2435
▁mother	-10.2438
▁credit	-10.2441
▁contradict	-10.2443
▁strand	-10.2454
▁tip	-10.2456
▁worm	-10.2463
▁shore	-10.2466
fence	-10.2468
▁beam	-10.247
▁variation	-10.2484
▁intent	-10.2493
▁poet	-10.2497
▁precisely	-10.2507
▁consistent	-10.2519
▁vocal	-10.2519
▁proceeding	-10.2538
▁tann	-10.2551
▁scholar	-10.2556
ould	-10.2568
hand	-10.2572
▁rent	-10.2578
▁materials	-10.2587
▁eggs	-10.2592
▁void	-10.2593
▁derive	-10.2623
▁exceeding	-10.2627
▁8	-10.2638
▁determin	-10.2654
▁exceed	-10.2658
▁Wi	-10.268
▁forces	-10.269
▁correspond	-10.2701
▁bak	-10.2704
▁genera	-10.2711
omeone	-10.2711
▁ago	-10.2716
▁Bas	-10.2726
▁Don	-10.274
▁exhaust	-10.2748
▁legislat	-10.2755
▁haphazard	-10.2765
▁reasoning	-10.2774
▁Close	-10.2796
M	-10.2813
▁functional	-10.2833
▁stiff	-10.2839
el	-10.2839
▁modifi	-10.2845
▁ma	-10.2849
▁decorate	-10.285
▁invest	-10.2854
▁deprive	-10.2857
▁experiment	-10.2858
men	-10.286
▁associate	-10.2862
▁accura	-10.2867
▁bow	-10.2867
▁impart	-10.2868
▁Australia	-10.2868
▁Islam	-10.2868
▁cylind	-10.2868
▁principal	-10.2868
▁segment	-10.2868
▁shrub	-10.2868
▁suspicion	-10.2868
▁built	-10.2868
▁struggle	-10.2868
▁Muslim	-10.2868
▁masculine	-10.2868
▁Spanish	-10.2868
▁shrill	-10.2868
▁bottle	-10.2868
▁honest	-10.2868
▁flame	-10.2868
▁generic	-10.2868
▁shrink	-10.2868
▁wrist	-10.2868
▁cheap	-10.2869
▁valuable	-10.2869
▁ancestr	-10.2869
▁vagina	-10.2869
▁steep	-10.2869
▁regulation	-10.2869
▁novel	-10.2869
▁hospital	-10.287
▁organisation	-10.287
▁annoyance	-10.287
▁sitting	-10.287
▁client	-10.287
▁review	-10.287
▁youth	-10.2871
▁doctrine	-10.2871
▁boil	-10.2875
▁adjacent	-10.2877
▁discrimination	-10.288
▁interaction	-10.2881
▁token	-10.2884
finite	-10.2885
▁nonsens	-10.2885
▁overcome	-10.2885
▁technology	-10.289
▁rude	-10.2892
▁deck	-10.2892
▁welcom	-10.2894
▁devil	-10.2894
▁grave	-10.2908
▁destructi	-10.2909
▁located	-10.291
▁deposit	-10.291
▁extract	-10.2911
▁bias	-10.2921
▁bath	-10.2923
▁underst	-10.2932
▁outline	-10.2934
▁upward	-10.2934
▁securit	-10.2938
▁news	-10.2947
▁Asia	-10.2948
▁feathers	-10.2952
▁six	-10.2954
liable	-10.2962
▁Ir	-10.2962
▁bacteria	-10.2966
▁cable	-10.297
▁useful	-10.2976
▁maximu	-10.2979
gently	-10.2984
ocket	-10.2995
▁vessels	-10.2997
▁ink	-10.3002
▁wo	-10.3013
▁flatter	-10.3013
▁parties	-10.3014
▁lyric	-10.3026
▁shake	-10.3048
▁mineral	-10.305
liness	-10.3051
▁note	-10.3058
▁delivered	-10.3061
pace	-10.307
▁manual	-10.3087
▁guide	-10.3096
▁unite	-10.3099
▁popul	-10.3101
▁chee	-10.3117
▁disgust	-10.3125
▁here	-10.3138
▁sus	-10.3139
▁replac	-10.3171
ature	-10.3172
▁penetrate	-10.3194
▁distribut	-10.3195
▁expect	-10.3209
co	-10.3211
ches	-10.3226
mple	-10.3229
▁strik	-10.3229
void	-10.323
▁constitute	-10.3239
▁reading	-10.3245
▁controll	-10.3246
▁exception	-10.3259
▁buildings	-10.3263
▁Characteris	-10.3283
class	-10.3293
▁falling	-10.3298
▁elect	-10.3306
▁bell	-10.3308
▁mone	-10.3319
▁sacr	-10.3321
▁laws	-10.3324
▁bold	-10.3337
▁rational	-10.3337
▁enterprise	-10.3344
▁locomotive	-10.3344
▁opportunit	-10.3344
▁augment	-10.3344
▁knife	-10.3344
▁parameter	-10.3344
▁jerk	-10.3344
▁garden	-10.3345
▁newspaper	-10.3345
▁twice	-10.3345
▁revolution	-10.3345
▁keen	-10.3345
▁outdoor	-10.3345
▁Careful	-10.3345
▁wagon	-10.3346
▁bank	-10.3346
▁participant	-10.3346
▁brick	-10.3346
▁motive	-10.3346
▁overall	-10.3347
▁flaw	-10.3347
▁railway	-10.3347
▁subset	-10.3348
▁Work	-10.3348
▁brother	-10.3348
▁insufficient	-10.3348
▁dignity	-10.3349
▁soul	-10.335
▁bestow	-10.335
unning	-10.3352
▁vast	-10.3353
▁deny	-10.3354
▁gold	-10.3357
▁leap	-10.3359
▁hook	-10.336
▁carv	-10.3361
▁sentimental	-10.3362
▁fever	-10.3362
▁panel	-10.3369
▁enthusiastic	-10.3377
▁staff	-10.3378
▁orbit	-10.3379
▁awe	-10.3381
▁bomb	-10.3385
▁prove	-10.3387
▁mail	-10.3389
dominant	-10.3391
▁committed	-10.3394
▁Tru	-10.3397
▁customer	-10.3397
▁errors	-10.34
▁agency	-10.342
▁thoroughly	-10.3429
▁witch	-10.3447
▁passive	-10.3448
ac	-10.3453
▁pot	-10.3455
▁hous	-10.3458
ngular	-10.346
ating	-10.346
iz	-10.3474
▁freely	-10.348
▁die	-10.3483
▁killing	-10.3487
ector	-10.3494
▁sustain	-10.3495
▁flexible	-10.3498
lly	-10.3499
ite	-10.3501
▁promote	-10.3506
▁counters	-10.3508
am	-10.3522
▁electro	-10.3524
▁horses	-10.3533
▁inju	-10.3536
▁bored	-10.3544
▁phase	-10.3566
▁atoms	-10.3568
▁charged	-10.3587
▁Ju	-10.359
▁lock	-10.3592
▁shed	-10.3593
at	-10.3597
▁/	-10.3599
▁ride	-10.3632
ility	-10.3633
▁count	-10.3636
gen	-10.3639
▁brown	-10.3659
▁moderate	-10.3663
the	-10.3671
made	-10.3687
▁confus	-10.3691
▁inspiring	-10.3698
▁belong	-10.3706
▁contents	-10.3709
▁resistan	-10.373
▁permit	-10.3731
▁wing	-10.3752
▁vigorous	-10.3753
easy	-10.3773
▁reverse	-10.3775
▁graphic	-10.3784
bas	-10.3801
verage	-10.3803
▁suppose	-10.3804
▁analog	-10.3805
▁nois	-10.3816
▁defend	-10.3816
▁knee	-10.3817
▁enthusias	-10.382
▁craz	-10.3832
▁slip	-10.3832
▁wit	-10.3833
▁manifest	-10.3835
▁participat	-10.3837
▁faith	-10.3841
▁descend	-10.3842
siastical	-10.3844
▁Philippine	-10.3844
▁loop	-10.3844
▁occupy	-10.3844
▁surgical	-10.3844
▁tranquil	-10.3844
▁college	-10.3844
▁imaginary	-10.3844
▁honor	-10.3844
evitabl	-10.3844
▁perplex	-10.3844
▁spontaneous	-10.3845
▁restaurant	-10.3845
▁sorrow	-10.3845
▁Inclin	-10.3845
▁bridge	-10.3845
▁guest	-10.3845
▁wound	-10.3845
▁scatter	-10.3845
▁Nonsens	-10.3846
▁US	-10.3846
▁Wide	-10.3846
▁seize	-10.3846
▁sword	-10.3847
▁football	-10.3847
▁gap	-10.3847
▁convenient	-10.385
▁spoil	-10.385
atory	-10.3851
▁cheek	-10.3854
▁Scot	-10.3854
▁recreational	-10.3855
▁calculation	-10.3856
▁sold	-10.3857
▁devotion	-10.3858
▁recording	-10.3859
▁lip	-10.386
▁stuff	-10.386
▁month	-10.3861
▁association	-10.3863
▁cake	-10.3868
▁Con	-10.3868
▁trial	-10.3872
▁virus	-10.3872
▁modest	-10.3876
▁mount	-10.3877
▁selection	-10.388
▁exit	-10.388
▁oxygen	-10.3881
creation	-10.3883
▁tobacco	-10.3887
▁dove	-10.3898
ular	-10.3903
▁projection	-10.3908
▁comes	-10.391
▁tiny	-10.3913
▁genetic	-10.3915
▁abundant	-10.392
▁relations	-10.3922
▁bubble	-10.3924
▁academic	-10.3933
▁comfortable	-10.3946
ange	-10.3951
▁featur	-10.3959
▁steps	-10.396
▁pause	-10.3961
titude	-10.3961
▁Mov	-10.3964
▁promis	-10.3972
▁stable	-10.3977
▁underhand	-10.3989
▁deserv	-10.3994
▁n	-10.3998
I	-10.4
term	-10.4003
colat	-10.4003
put	-10.4015
▁entran	-10.4029
raw	-10.403
▁Affect	-10.403
▁hitt	-10.4037
▁wid	-10.4055
▁Im	-10.407
▁lor	-10.4083
▁determining	-10.4083
▁pet	-10.4085
wear	-10.4087
▁nerve	-10.409
▁remark	-10.4096
▁Man	-10.4103
▁citizen	-10.4104
▁brave	-10.4109
▁fac	-10.4118
▁identifi	-10.412
▁pursue	-10.4135
▁north	-10.4135
respective	-10.4136
▁experienc	-10.4147
uch	-10.4153
treat	-10.4171
▁enforce	-10.4172
▁sa	-10.4172
spring	-10.4174
house	-10.4176
▁funn	-10.4179
▁parents	-10.4181
▁medi	-10.4188
▁insur	-10.4207
▁rotat	-10.421
▁friends	-10.4212
▁degrees	-10.4212
▁shine	-10.4224
head	-10.4237
▁passion	-10.4239
▁infect	-10.4253
▁lai	-10.4259
▁dye	-10.426
ot	-10.427
▁alien	-10.4277
▁thorough	-10.4278
▁spark	-10.4283
▁demonstrate	-10.4294
ow	-10.4297
▁dogs	-10.4303
▁minim	-10.4304
▁Design	-10.4317
▁dispute	-10.4323
▁manufacture	-10.4331
ning	-10.4332
▁preserve	-10.4346
▁furni	-10.4365
▁scar	-10.4368
▁attributes	-10.4369
▁buttocks	-10.4371
▁depth	-10.4371
▁mathematical	-10.4371
▁murder	-10.4371
▁thrust	-10.4371
▁ultimate	-10.4371
▁journey	-10.4371
▁thirty	-10.4371
▁voluntar	-10.4371
▁sarcas	-10.4371
▁vault	-10.4371
▁Requir	-10.4371
▁pepper	-10.4371
▁Excell	-10.4371
▁Church	-10.4371
▁greet	-10.4371
▁pursuit	-10.4371
▁pledge	-10.4371
▁oath	-10.4371
▁modify	-10.4371
▁intensif	-10.4371
▁noteworthy	-10.4372
▁suprem	-10.4372
▁leaving	-10.4372
▁expand	-10.4372
▁pompous	-10.4372
▁pluck	-10.4373
▁deceitful	-10.4373
▁earnest	-10.4374
▁drain	-10.4374
▁descendant	-10.4374
▁festival	-10.4375
▁sculpture	-10.4377
ypothetical	-10.4377
▁imaginati	-10.4377
▁hardware	-10.438
▁investment	-10.4382
▁painful	-10.4386
▁abate	-10.4388
▁sleeve	-10.4388
▁intelligence	-10.4389
▁window	-10.439
▁renounc	-10.439
▁judgement	-10.4391
▁improvement	-10.4391
▁accomplishment	-10.4393
▁tongue	-10.4396
▁inhabit	-10.4396
▁exertion	-10.4397
▁tube	-10.4401
▁industrial	-10.4411
quark	-10.4412
unction	-10.4419
▁ambigu	-10.442
▁earn	-10.4423
▁General	-10.4427
▁shadow	-10.4453
▁mentioned	-10.4462
▁tense	-10.447
▁nations	-10.4482
▁metaphorically	-10.4491
▁follower	-10.4493
▁released	-10.4511
rical	-10.4513
▁Bo	-10.4519
▁executed	-10.4521
▁passengers	-10.4529
▁poly	-10.4543
▁repeatedly	-10.4547
▁travell	-10.4547
▁designat	-10.4553
tive	-10.4557
ried	-10.4579
▁Near	-10.4588
▁prob	-10.4596
▁permissi	-10.4605
sers	-10.461
▁stain	-10.4627
▁imitat	-10.4646
lief	-10.4663
aid	-10.4668
off	-10.4668
izing	-10.4675
older	-10.4687
▁mischie	-10.4694
▁mor	-10.4695
▁matur	-10.47
▁en	-10.4715
terra	-10.4721
▁promot	-10.4722
▁enabl	-10.473
born	-10.473
yon	-10.4735
▁pal	-10.4748
▁south	-10.476
▁compress	-10.4772
▁stimul	-10.4775
nean	-10.4778
magnetic	-10.4791
▁challenge	-10.4797
▁violat	-10.4797
▁Se	-10.4809
llen	-10.4814
end	-10.4824
▁recent	-10.4835
well	-10.4837
mia	-10.4841
▁vegetati	-10.4873
▁assistan	-10.4874
ame	-10.4883
▁protest	-10.4884
▁tid	-10.4902
▁compete	-10.4903
▁pett	-10.4905
▁interrupt	-10.4907
▁discuss	-10.4907
▁fantas	-10.491
▁dispos	-10.4915
▁flour	-10.4925
▁Material	-10.4926
▁Physical	-10.4926
▁celebrit	-10.4926
▁increasing	-10.4926
▁involuntar	-10.4926
▁propriet	-10.4926
▁neglect	-10.4926
▁hurt	-10.4926
▁abdom	-10.4926
▁bundle	-10.4926
▁landscape	-10.4926
▁Sharp	-10.4926
▁Offensive	-10.4926
▁immoral	-10.4926
▁flood	-10.4926
▁clause	-10.4926
▁folk	-10.4927
▁stew	-10.4927
▁innocen	-10.4927
▁sweep	-10.4927
▁superficial	-10.4927
▁respond	-10.4927
▁Contra	-10.4927
▁jaw	-10.4927
▁generous	-10.4927
▁spell	-10.4927
mast	-10.4928
▁slave	-10.4928
▁theater	-10.4928
▁predominant	-10.4928
▁doctor	-10.4929
▁queen	-10.4929
▁wonderful	-10.493
▁marri	-10.493
being	-10.493
▁cities	-10.4933
▁flavor	-10.4933
▁remed	-10.4933
▁vacu	-10.4934
▁cease	-10.4936
▁greed	-10.4937
▁heroic	-10.4937
ny	-10.4938
▁awesome	-10.4938
▁taxon	-10.4939
▁assess	-10.4939
▁tear	-10.4941
▁cannabi	-10.4941
▁stir	-10.4943
▁switch	-10.4944
▁felt	-10.4944
▁frequency	-10.4945
▁argue	-10.4947
▁beaut	-10.4948
▁unstead	-10.4951
▁distinctive	-10.4952
▁commerc	-10.4953
ide	-10.4954
▁Exceptional	-10.4954
▁synthetic	-10.4955
▁dai	-10.4959
▁singer	-10.4965
▁alteration	-10.4967
▁big	-10.4973
structure	-10.4975
speaking	-10.498
▁adverse	-10.4985
▁yard	-10.4992
▁expense	-10.4996
▁satisfie	-10.5001
▁symbolic	-10.5004
▁truck	-10.501
▁silvery	-10.5014
▁rarely	-10.5015
▁multi	-10.5016
▁composit	-10.5027
▁Com	-10.5033
▁burst	-10.5037
▁readi	-10.504
▁mammals	-10.5046
▁pointed	-10.5051
▁advanced	-10.5054
compliance	-10.5055
▁balance	-10.5058
▁legislati	-10.5068
net	-10.5071
▁input	-10.5073
▁stopp	-10.5081
▁supporter	-10.5092
▁injure	-10.5099
▁inactive	-10.5112
▁keeps	-10.5123
▁pretend	-10.5126
▁transmitt	-10.5128
▁miser	-10.5132
▁tightly	-10.514
▁penetrat	-10.5144
▁Loca	-10.5146
▁complet	-10.5152
▁ro	-10.5153
▁brightly	-10.5156
ever	-10.518
▁install	-10.5186
▁disgusting	-10.519
li	-10.5192
stern	-10.5197
stice	-10.5201
▁atom	-10.5205
▁spin	-10.5206
back	-10.5223
▁shell	-10.5224
▁acknowledge	-10.5228
▁tire	-10.5234
acious	-10.5241
▁guardian	-10.5246
wards	-10.5249
▁assum	-10.5254
▁clos	-10.5256
▁wash	-10.5262
▁East	-10.5272
luc	-10.5274
mature	-10.528
▁Rh	-10.5303
▁follows	-10.5308
fortune	-10.5312
road	-10.5314
▁sting	-10.5315
▁observ	-10.5316
spread	-10.5319
division	-10.532
▁dealing	-10.5328
▁regret	-10.5328
▁embellish	-10.5346
tension	-10.5347
▁absen	-10.5348
etic	-10.5354
▁gr	-10.5358
ease	-10.5365
▁Form	-10.5373
▁log	-10.5381
▁bor	-10.5384
▁facilit	-10.5384
▁option	-10.5408
eous	-10.5412
mobile	-10.5426
eady	-10.5427
pit	-10.5429
▁rare	-10.5432
▁populat	-10.5438
ping	-10.5439
▁ju	-10.5448
▁admit	-10.5457
▁channel	-10.5465
▁agricultur	-10.547
▁stands	-10.5472
▁imitate	-10.5474
▁compel	-10.5478
▁cute	-10.5479
▁conj	-10.5492
▁arrive	-10.5494
▁saddle	-10.5503
▁dread	-10.5506
▁pig	-10.5507
▁restore	-10.5509
▁Li	-10.5514
▁Similar	-10.5515
▁authoritative	-10.5515
▁husband	-10.5515
▁jurisdiction	-10.5515
▁manuscript	-10.5515
▁membrane	-10.5515
▁register	-10.5515
▁swift	-10.5515
▁compartment	-10.5515
▁statistic	-10.5515
▁succeed	-10.5515
▁World	-10.5515
▁shallow	-10.5515
▁sheep	-10.5515
▁suspect	-10.5515
▁annex	-10.5515
▁inherit	-10.5515
▁splash	-10.5515
▁troop	-10.5515
▁centuries	-10.5515
▁affirm	-10.5515
▁polish	-10.5515
▁snake	-10.5515
▁Old	-10.5515
▁polite	-10.5515
▁refrain	-10.5515
▁merry	-10.5515
▁excrement	-10.5515
▁crew	-10.5516
▁linguistic	-10.5516
▁copious	-10.5516
▁proposition	-10.5517
▁eager	-10.5518
▁gesture	-10.5518
▁sixty	-10.5518
▁ascertain	-10.552
▁underneath	-10.552
▁leaf	-10.5521
▁investigation	-10.5521
▁excuse	-10.5521
▁posture	-10.5521
▁evaluat	-10.5521
▁decade	-10.5521
▁provision	-10.5522
▁passionate	-10.5523
▁adjective	-10.5524
▁grey	-10.5524
▁huge	-10.5524
▁witness	-10.5527
▁numeral	-10.5529
▁Bible	-10.553
▁Former	-10.5531
▁peer	-10.5532
▁theatre	-10.5533
▁hinder	-10.5534
▁protective	-10.5535
▁mixing	-10.5538
▁distribute	-10.5543
▁faster	-10.5543
▁deed	-10.5544
▁routine	-10.5545
▁rite	-10.5548
▁hung	-10.5549
▁historical	-10.5551
▁bead	-10.5554
lf	-10.5556
▁obedien	-10.5558
▁servant	-10.5558
sound	-10.5561
type	-10.5564
eight	-10.5564
▁fuck	-10.5577
▁pour	-10.5579
▁famous	-10.5583
▁lungs	-10.559
▁inherent	-10.5593
▁arch	-10.5597
▁minimal	-10.5604
ration	-10.5606
▁behaving	-10.561
▁complicated	-10.5616
▁bare	-10.5621
▁radi	-10.5623
▁asset	-10.5629
use	-10.5629
▁cash	-10.5633
▁clock	-10.5644
▁eliminate	-10.5657
▁observed	-10.5671
▁proof	-10.5672
▁edit	-10.5679
▁damaged	-10.5684
▁para	-10.569
▁abo	-10.5705
▁storm	-10.5707
▁Cloth	-10.5711
▁coffe	-10.5714
▁accumulate	-10.5723
inity	-10.5725
▁reproduc	-10.573
▁ja	-10.5732
▁favourabl	-10.5732
xious	-10.5747
▁cli	-10.5766
▁exclud	-10.5767
▁pur	-10.577
▁orientation	-10.5779
▁jack	-10.5785
▁conventional	-10.5801
▁bu	-10.5829
ney	-10.5829
▁Sun	-10.5831
live	-10.5846
▁swim	-10.5854
umb	-10.5858
▁horr	-10.5862
tial	-10.5869
▁accident	-10.5873
▁10	-10.5879
▁oppose	-10.5881
▁le	-10.5882
▁sil	-10.5893
▁endear	-10.5895
▁squeeze	-10.5909
tent	-10.5924
▁manipulat	-10.5931
conventional	-10.5939
ction	-10.5939
flexible	-10.5941
▁modifie	-10.5943
wheel	-10.5944
wood	-10.5946
belief	-10.5946
person	-10.5946
▁roots	-10.5968
▁devot	-10.5973
distinguishable	-10.5988
▁abuse	-10.5994
▁mystic	-10.5999
▁me	-10.6017
▁harmon	-10.6029
▁polic	-10.6037
▁evening	-10.6039
▁stimulat	-10.6046
▁ratio	-10.6054
▁Ho	-10.6063
▁marks	-10.6063
▁categori	-10.6069
zy	-10.6089
▁labour	-10.6102
▁advertis	-10.6106
▁separately	-10.6118
▁impress	-10.612
▁except	-10.612
▁introduce	-10.6126
▁east	-10.6126
▁drama	-10.6132
▁decide	-10.6133
▁basket	-10.6139
▁absurd	-10.614
▁Christmas	-10.614
▁criticize	-10.614
▁yarn	-10.614
▁condemn	-10.614
▁disregard	-10.614
▁worrie	-10.614
▁automobile	-10.614
▁resolve	-10.614
▁hell	-10.614
▁stunt	-10.614
▁Regard	-10.614
▁borrow	-10.614
▁district	-10.614
▁grumbling	-10.614
▁gloom	-10.614
▁solemn	-10.614
▁background	-10.614
▁never	-10.614
▁obscene	-10.6141
▁cluster	-10.6141
▁chew	-10.6142
▁reward	-10.6143
▁relieve	-10.6143
affle	-10.6144
▁cheerful	-10.6144
▁flash	-10.6144
▁circum	-10.6145
▁brilliant	-10.6145
▁transition	-10.6146
▁mere	-10.6146
espicable	-10.6147
▁pronunciation	-10.6147
▁constraint	-10.6147
▁plot	-10.6148
▁interpretation	-10.6148
▁bullet	-10.6148
▁radical	-10.6149
▁compassion	-10.6149
▁thresh	-10.6149
▁bride	-10.615
▁western	-10.615
▁faithful	-10.6151
▁representative	-10.6152
▁feces	-10.6154
▁Fill	-10.6155
▁decline	-10.6157
▁ha	-10.6159
▁unfair	-10.616
▁definition	-10.616
eland	-10.616
▁precious	-10.616
▁promotion	-10.6162
▁depress	-10.6164
▁vary	-10.6164
▁utterance	-10.6164
▁manipulate	-10.6165
▁efficient	-10.6166
tile	-10.6167
▁debase	-10.6168
TV	-10.6176
▁strain	-10.6176
▁sensor	-10.6178
▁accumulation	-10.6179
heel	-10.6179
sible	-10.6185
▁buy	-10.619
▁Rem	-10.6191
▁sad	-10.6191
▁screw	-10.6199
▁decisive	-10.6199
▁assert	-10.62
▁imply	-10.6201
▁mad	-10.6201
ach	-10.6209
▁robot	-10.6209
▁insane	-10.6213
▁cheer	-10.6216
ard	-10.6218
▁urge	-10.6219
▁assumption	-10.6226
▁younger	-10.6227
▁aroused	-10.6228
▁distinction	-10.6228
▁dispers	-10.6229
▁terror	-10.623
▁conscien	-10.623
▁reserv	-10.623
▁deviate	-10.6235
▁fraud	-10.6237
▁magical	-10.6238
tress	-10.6239
uge	-10.6239
▁sensitive	-10.624
▁core	-10.6243
▁swing	-10.6246
▁recurren	-10.6253
▁intermedia	-10.6259
▁constitut	-10.626
▁overly	-10.6264
▁Thin	-10.6268
▁fir	-10.6273
▁rhythmic	-10.6289
bark	-10.6309
ti	-10.6316
ferr	-10.6319
pping	-10.6331
▁recognize	-10.6332
▁infinite	-10.6333
possibility	-10.6344
▁rect	-10.6346
sexual	-10.6349
▁psych	-10.6362
▁expectations	-10.6366
▁controvers	-10.6392
▁adhere	-10.64
▁haste	-10.6401
▁publicly	-10.6404
▁let	-10.6405
▁fu	-10.6405
▁exactly	-10.6407
▁Ba	-10.6413
▁lust	-10.642
cell	-10.6428
▁rob	-10.6438
ori	-10.646
▁camp	-10.646
▁forg	-10.6471
be	-10.6473
▁Appear	-10.6489
nia	-10.6494
▁hormone	-10.6502
▁fitting	-10.6514
▁compare	-10.6518
R	-10.6521
▁exclude	-10.6526
pile	-10.653
▁egg	-10.6536
▁protein	-10.6537
▁hack	-10.6539
▁arbitra	-10.6542
▁St	-10.6551
▁substitut	-10.6552
try	-10.6589
decided	-10.6589
osis	-10.6592
look	-10.6593
▁offend	-10.6598
aining	-10.6606
friend	-10.661
weight	-10.6614
▁decid	-10.6623
▁whip	-10.6626
▁vic	-10.6644
▁license	-10.6644
▁ceremoni	-10.6649
▁punish	-10.6654
▁lose	-10.6678
stock	-10.6699
▁convention	-10.6705
▁mud	-10.6713
▁herb	-10.6723
z	-10.6732
▁format	-10.6744
▁justificat	-10.6745
▁spic	-10.6749
▁indirect	-10.6752
▁hydro	-10.6766
▁flee	-10.6772
▁interpret	-10.678
▁swo	-10.6781
il	-10.6787
▁obligat	-10.6791
▁perceive	-10.6792
▁intelligen	-10.6797
▁fright	-10.6797
▁luxur	-10.6797
▁drunk	-10.6798
▁transform	-10.6799
▁import	-10.68
▁vigo	-10.68
marine	-10.6801
▁differ	-10.6801
▁aborti	-10.6801
▁numer	-10.6802
▁reveren	-10.6804
▁redundan	-10.6804
▁imprison	-10.6806
▁People	-10.6806
▁Situat	-10.6806
▁distract	-10.6806
▁fatigue	-10.6806
▁hundred	-10.6806
▁knob	-10.6806
▁prejudice	-10.6806
▁shield	-10.6806
▁submissive	-10.6806
▁theoretical	-10.6806
▁leisure	-10.6806
▁Italian	-10.6806
▁monarch	-10.6806
▁arithmetic	-10.6806
▁Exact	-10.6806
▁Short	-10.6806
▁portray	-10.6806
▁knight	-10.6806
▁slice	-10.6806
▁waist	-10.6806
▁errand	-10.6806
▁juice	-10.6806
▁arrest	-10.6806
▁fuel	-10.6807
▁repetition	-10.6807
▁fiber	-10.6807
▁smart	-10.6807
▁bulk	-10.6807
▁alleviat	-10.6807
▁illusion	-10.6807
▁singular	-10.6807
▁88	-10.6807
▁Russia	-10.6808
▁fastidious	-10.6808
▁connotation	-10.6808
▁burglar	-10.6808
▁silence	-10.6808
▁stalk	-10.6808
▁Scout	-10.6809
▁comprehensive	-10.6811
▁lifestyle	-10.6811
▁wire	-10.6811
▁somewhere	-10.6811
▁artwork	-10.6812
▁overpower	-10.6813
▁chain	-10.6813
▁Worth	-10.6814
▁introduction	-10.6815
▁Portug	-10.6816
▁destructive	-10.6817
▁pigment	-10.6817
▁scheme	-10.6817
▁shame	-10.682
▁teacher	-10.682
▁inadequate	-10.682
▁antagonist	-10.6821
▁scientist	-10.6821
▁route	-10.6823
▁Partial	-10.6823
xhibit	-10.6825
▁Or	-10.6827
▁intimidat	-10.6827
▁brush	-10.6828
▁retire	-10.6831
▁judicial	-10.6833
▁eso	-10.6833
▁fulfill	-10.6834
▁soup	-10.6838
▁commitment	-10.6838
▁spher	-10.6847
▁arguments	-10.6847
▁upside	-10.6847
▁international	-10.6847
▁binar	-10.6852
▁virtue	-10.6853
▁fond	-10.6854
▁Bad	-10.6856
▁bully	-10.6859
▁scor	-10.6868
rance	-10.6871
▁initiate	-10.6875
▁exciting	-10.6877
ze	-10.6879
▁hate	-10.6882
▁endow	-10.6883
▁lessen	-10.6889
▁pitcher	-10.6896
eval	-10.6904
▁glad	-10.6912
▁wav	-10.6914
▁addict	-10.692
▁ficti	-10.6923
dom	-10.6924
▁ski	-10.6926
iation	-10.6933
▁arrang	-10.6933
▁hind	-10.6944
▁package	-10.6946
▁dishe	-10.6946
▁introduced	-10.6948
▁luck	-10.6956
ung	-10.6962
▁diagram	-10.6986
▁anticipat	-10.6988
▁China	-10.6994
▁exhausted	-10.7
▁adulter	-10.7008
▁favorable	-10.701
ile	-10.701
▁contribute	-10.7017
▁workers	-10.7032
▁Sp	-10.7033
ned	-10.7044
▁nationalist	-10.7049
▁disorientat	-10.7055
lets	-10.7057
▁island	-10.7064
let	-10.7065
▁endur	-10.7075
ster	-10.7077
▁bud	-10.7077
▁obscurit	-10.7078
▁absolutely	-10.7086
▁diet	-10.7095
▁impur	-10.71
▁relax	-10.7145
▁persuade	-10.7147
▁micro	-10.7149
gged	-10.7152
▁mill	-10.7167
▁reserve	-10.7174
▁recogni	-10.7177
▁norther	-10.7177
▁Arous	-10.7177
▁schedule	-10.7183
▁maintained	-10.7192
ncient	-10.7198
ip	-10.7224
▁ahead	-10.7238
▁build	-10.7262
gent	-10.7264
▁hop	-10.7269
▁demon	-10.7272
▁cycle	-10.7273
▁cre	-10.7274
▁divers	-10.7277
ured	-10.7278
▁semantic	-10.7281
▁fie	-10.7302
▁pan	-10.7306
sophistica	-10.731
step	-10.7326
▁Thi	-10.7326
temper	-10.7326
down	-10.7329
conduct	-10.7331
▁integr	-10.7368
▁sevent	-10.7376
▁rabi	-10.7382
▁ignore	-10.739
▁tri	-10.7412
▁extensive	-10.7421
▁capital	-10.7423
shape	-10.7434
▁since	-10.7435
▁instant	-10.7441
▁surfaces	-10.7443
▁buffe	-10.7446
▁initiat	-10.7451
▁simulate	-10.7455
▁throat	-10.7455
▁pla	-10.7469
▁compounds	-10.7472
fill	-10.748
▁confer	-10.7484
▁prison	-10.7497
▁exercis	-10.75
▁enlarge	-10.7503
▁moist	-10.7504
▁harass	-10.7511
▁mistakes	-10.7512
▁chronic	-10.7512
▁Harm	-10.7517
▁wonder	-10.7517
▁Catholic	-10.7518
▁peace	-10.752
▁append	-10.752
▁Exceeding	-10.752
▁delicate	-10.752
▁amateur	-10.752
▁camera	-10.752
▁chromosome	-10.752
▁consonant	-10.752
▁constituent	-10.752
▁council	-10.752
▁curiosit	-10.752
▁disconcert	-10.752
▁dwarf	-10.752
▁integer	-10.752
▁merchan	-10.752
▁narcotic	-10.752
▁practitioner	-10.752
▁trifling	-10.752
▁extinct	-10.752
▁voyage	-10.752
▁concav	-10.752
▁monitor	-10.752
▁universe	-10.752
▁pedestrian	-10.7521
▁stereotypical	-10.7521
▁worry	-10.7521
▁saturat	-10.7521
▁Two	-10.7521
▁disappear	-10.7521
▁label	-10.7521
▁scold	-10.7521
▁conjectur	-10.7521
▁discontent	-10.7521
▁unwilling	-10.7521
▁margin	-10.7521
▁spouse	-10.7521
▁qualification	-10.7521
▁concert	-10.7521
▁reddish	-10.7521
▁Deep	-10.7521
▁Hawaiian	-10.7521
▁crude	-10.7521
▁dismiss	-10.7521
cuous	-10.7521
▁hollow	-10.7521
▁denomination	-10.7521
▁poem	-10.7522
▁steer	-10.7522
▁groom	-10.7522
▁swallow	-10.7522
acea	-10.7522
▁sediment	-10.7522
▁deception	-10.7523
vous	-10.7523
▁Depend	-10.7523
▁hotel	-10.7523
▁recover	-10.7523
▁honey	-10.7523
▁silent	-10.7524
▁Irish	-10.7524
▁unload	-10.7525
▁Deserv	-10.7525
▁defence	-10.7525
▁genome	-10.7525
▁crush	-10.7526
▁Provid	-10.7526
▁crown	-10.7526
▁confrontation	-10.7526
▁conspicuous	-10.7529
▁brittle	-10.7529
▁emphasis	-10.7529
▁nice	-10.753
▁gland	-10.753
▁drum	-10.753
▁fitted	-10.7531
▁fuss	-10.7532
▁classification	-10.7533
▁Perform	-10.7534
▁acute	-10.7535
▁hero	-10.7537
▁alternative	-10.754
-19	-10.7541
▁merit	-10.7542
▁careless	-10.7543
▁shaft	-10.7543
▁turbulen	-10.7544
▁occupie	-10.7544
▁patch	-10.7544
▁forcibly	-10.7546
▁architectur	-10.7546
▁cautious	-10.7546
▁bolt	-10.7547
▁tin	-10.7548
▁travers	-10.7548
▁victor	-10.7552
▁amusing	-10.7552
▁horn	-10.7553
▁explore	-10.7555
▁wishes	-10.7558
▁skillful	-10.7561
▁Bear	-10.7563
▁impregnate	-10.7565
▁battery	-10.7565
▁astronom	-10.7569
▁reconcil	-10.7569
▁busy	-10.757
▁esteem	-10.7573
▁indigen	-10.7575
▁rider	-10.7579
act	-10.7579
▁nut	-10.7582
▁incompetent	-10.7585
ixed	-10.7587
utable	-10.7593
▁voc	-10.7598
▁fusion	-10.7603
▁geometric	-10.7615
▁laz	-10.7615
ge	-10.7618
▁virtual	-10.762
▁Confus	-10.7621
▁slant	-10.7622
▁fungi	-10.7623
▁agreed	-10.7633
▁charit	-10.7666
do	-10.7673
nda	-10.768
▁mar	-10.768
▁utilit	-10.7686
tious	-10.7692
▁ir	-10.7703
▁mast	-10.7709
aria	-10.7714
▁Mexica	-10.7718
restraint	-10.7735
▁soften	-10.7736
▁Wal	-10.774
▁whi	-10.7753
▁J	-10.7757
▁arc	-10.7762
▁daw	-10.7764
▁winn	-10.7764
▁Ru	-10.7775
pathy	-10.779
tle	-10.7813
▁calculate	-10.7825
ancy	-10.7825
▁forbidd	-10.7832
▁seven	-10.7836
spirited	-10.7841
▁inflat	-10.7846
▁accidental	-10.785
▁Sea	-10.7869
▁va	-10.7879
▁weari	-10.7886
▁gett	-10.7887
▁knowing	-10.7889
proof	-10.7895
▁acknowledg	-10.7896
strained	-10.791
lean	-10.7914
▁holder	-10.7919
▁Pron	-10.792
▁j	-10.7922
craft	-10.7927
dise	-10.7942
nel	-10.795
fourth	-10.7956
form	-10.7962
ound	-10.7963
▁cris	-10.7963
▁qualifi	-10.7967
▁lamp	-10.7989
▁disbelieve	-10.8
▁ban	-10.8006
▁abus	-10.8012
▁unre	-10.8016
▁infra	-10.802
ending	-10.802
▁alga	-10.8029
▁expectation	-10.8031
▁dominate	-10.8034
▁mate	-10.805
▁cha	-10.8053
▁typ	-10.8065
▁proceed	-10.8072
forehand	-10.8072
cular	-10.8074
over	-10.8074
▁disrep	-10.8076
▁app	-10.8083
▁ta	-10.8085
▁Do	-10.8086
night	-10.8087
eminent	-10.8093
will	-10.8095
life	-10.8096
brown	-10.8097
▁impose	-10.8097
ad	-10.8097
▁charg	-10.8099
▁recogniz	-10.81
▁slo	-10.8104
▁clothe	-10.8117
▁uncult	-10.8124
▁bush	-10.8125
power	-10.8128
ma	-10.8129
▁revers	-10.8133
vely	-10.814
▁zone	-10.8143
▁apt	-10.8152
▁confirm	-10.8153
▁gla	-10.8156
▁warn	-10.8162
ncy	-10.8168
▁availab	-10.817
▁flying	-10.8174
▁rat	-10.8175
▁pa	-10.8186
▁propaga	-10.8192
▁Dut	-10.8207
standard	-10.8215
vol	-10.8223
▁excel	-10.8227
▁Pre	-10.8233
aneous	-10.8234
▁expel	-10.8252
▁sentiment	-10.8263
▁meant	-10.8265
▁propel	-10.8268
▁discriminat	-10.827
▁vol	-10.8271
▁applie	-10.8275
▁grip	-10.8275
▁concur	-10.8277
nate	-10.828
▁capabilit	-10.8283
▁acquaint	-10.8285
▁Christ	-10.8288
▁vigor	-10.8289
▁Direct	-10.829
▁Genuine	-10.829
▁competitor	-10.829
▁comprehend	-10.829
▁fragment	-10.829
▁jukebox	-10.829
▁magazine	-10.829
▁racquet	-10.829
▁riot	-10.829
▁rival	-10.829
▁enzyme	-10.829
▁urban	-10.829
▁vivid	-10.829
▁essay	-10.829
▁swagger	-10.829
▁lavish	-10.829
▁wedge	-10.829
▁obnoxious	-10.829
▁venom	-10.829
▁divert	-10.829
▁artillery	-10.829
▁index	-10.829
▁distasteful	-10.829
▁sketch	-10.829
▁mercy	-10.829
▁trivia	-10.829
▁Dark	-10.829
▁curtain	-10.8291
▁underground	-10.8291
▁Utter	-10.8291
▁disast	-10.8291
▁Good	-10.8291
▁approximation	-10.8291
▁textbook	-10.8291
▁interface	-10.8291
▁database	-10.8291
▁automatically	-10.8291
▁gravity	-10.8291
▁alarm	-10.8291
▁puff	-10.8292
▁Never	-10.8292
▁lens	-10.8292
▁odor	-10.8292
▁gross	-10.8292
▁assault	-10.8292
▁vow	-10.8292
▁ruin	-10.8292
▁trace	-10.8292
▁motorcycle	-10.8292
▁moisture	-10.8293
▁peaceful	-10.8294
▁cultivat	-10.8294
▁chest	-10.8295
▁Conform	-10.8295
▁deviation	-10.8295
▁uneducated	-10.8295
▁armour	-10.8296
▁humorous	-10.8296
▁uncover	-10.8296
▁conviction	-10.8297
▁resin	-10.8297
▁rodent	-10.8297
▁handling	-10.8298
▁discipline	-10.8299
▁compact	-10.8299
▁thrill	-10.8299
▁surpass	-10.83
▁inflection	-10.83
▁description	-10.83
▁gate	-10.8301
▁stray	-10.8302
▁temporal	-10.8302
▁intersection	-10.8302
▁intermit	-10.8304
▁alternat	-10.8304
▁intricate	-10.8305
▁Up	-10.8305
▁isolated	-10.8305
▁pronounce	-10.8307
▁solve	-10.8307
▁sympathy	-10.8308
▁appointment	-10.8309
▁digest	-10.8309
▁apartment	-10.8313
▁Hell	-10.8313
▁adequate	-10.8313
dvice	-10.8314
▁muscular	-10.8315
▁loyal	-10.8315
▁basin	-10.8316
▁propell	-10.8317
▁prize	-10.8317
skin	-10.8318
▁infection	-10.8319
▁portable	-10.8319
▁observer	-10.8319
▁pole	-10.8321
▁locality	-10.8321
▁deserve	-10.8322
▁unreasonable	-10.8322
▁administration	-10.8323
▁accessor	-10.8325
▁tract	-10.8325
▁clay	-10.8329
▁diminish	-10.8331
name	-10.8331
▁heal	-10.8331
▁Al	-10.8334
▁damn	-10.8334
▁solicit	-10.8335
▁Indo	-10.8337
▁meaningful	-10.8337
▁refined	-10.8342
▁meter	-10.8345
▁continent	-10.8347
resident	-10.8353
▁Willing	-10.8353
ester	-10.8354
▁attraction	-10.8358
chen	-10.8364
▁Turk	-10.8366
ference	-10.8369
▁cooperat	-10.8369
▁animate	-10.8382
▁fad	-10.8387
▁programme	-10.8393
ffected	-10.8394
▁specialize	-10.8394
ward	-10.8395
▁agreeable	-10.8403
▁entice	-10.841
▁induc	-10.8415
▁Emotional	-10.8416
▁vine	-10.8416
▁marking	-10.8418
▁secretion	-10.8419
▁investigate	-10.8425
▁sprinkl	-10.8433
▁emphasize	-10.8434
▁opponents	-10.8436
▁Bor	-10.844
eal	-10.8457
▁pity	-10.8459
▁abilit	-10.8461
ork	-10.8463
▁ceremonial	-10.8463
▁scorn	-10.8463
▁programm	-10.8466
tory	-10.848
▁har	-10.8481
▁plac	-10.8481
▁syllables	-10.8482
ime	-10.8488
▁Po	-10.8489
▁diseases	-10.8495
▁dim	-10.8496
▁abnormally	-10.851
▁joke	-10.8517
▁ensure	-10.8517
eeling	-10.8539
▁comprise	-10.8542
▁denote	-10.8545
▁seal	-10.8546
▁mess	-10.8547
▁unm	-10.8568
presentation	-10.8573
▁fortune	-10.8574
million	-10.8596
▁disparage	-10.8599
▁vo	-10.8601
ton	-10.8607
▁vice	-10.861
▁specializ	-10.8613
son	-10.863
▁clad	-10.8632
rous	-10.8633
▁Pr	-10.8637
▁rug	-10.8638
long	-10.8641
▁advers	-10.8647
ging	-10.8653
▁sur	-10.8677
▁domin	-10.8685
sake	-10.8689
▁learned	-10.8691
▁retain	-10.8704
▁director	-10.8707
imitation	-10.8709
▁fi	-10.871
▁ti	-10.8719
per	-10.8726
▁System	-10.8732
▁eu	-10.8733
▁wings	-10.8743
▁calculat	-10.8759
ues	-10.876
ul	-10.8777
▁adher	-10.8779
added	-10.8782
▁lightly	-10.8786
ppropriate	-10.8798
20	-10.8799
▁hid	-10.8799
▁barrel	-10.8804
stable	-10.8808
C	-10.8813
▁shocking	-10.8816
▁rolled	-10.8825
operative	-10.8827
ifying	-10.8827
ke	-10.8828
▁Blood	-10.8829
▁era	-10.883
▁humiliat	-10.8844
▁teach	-10.8856
min	-10.8861
tail	-10.8866
room	-10.8868
vant	-10.8873
▁Pri	-10.8884
hind	-10.8894
entric	-10.8899
▁oceans	-10.89
view	-10.8906
▁charm	-10.8919
favorable	-10.8926
effective	-10.8926
human	-10.8929
seven	-10.8931
▁execut	-10.8933
▁towns	-10.8934
▁rhythm	-10.8935
▁rapp	-10.8941
monious	-10.8943
bus	-10.8944
five	-10.8948
▁inform	-10.8952
▁carnivor	-10.8962
▁putt	-10.8962
servi	-10.8968
llowing	-10.8972
▁satisfact	-10.8978
uous	-10.8978
▁lived	-10.8979
ue	-10.9003
▁grid	-10.9003
▁Pass	-10.9006
▁fung	-10.9016
washing	-10.9025
shy	-10.9028
▁impurit	-10.9032
▁believ	-10.9033
ring	-10.9036
▁rot	-10.904
▁speci	-10.9063
▁vertic	-10.9065
▁kit	-10.9067
▁cancel	-10.9089
▁mimic	-10.9099
▁sigh	-10.9106
refore	-10.9111
reliable	-10.9112
avan	-10.9116
▁depart	-10.9118
▁solv	-10.9118
▁deceit	-10.9119
▁quant	-10.912
▁moth	-10.912
▁clergy	-10.9123
▁parliament	-10.9123
▁physi	-10.9123
▁Accord	-10.9123
▁Habitual	-10.9123
▁accompany	-10.9123
▁advancing	-10.9123
▁disadvantage	-10.9123
▁economy	-10.9123
▁equilibrium	-10.9123
▁grotesque	-10.9123
▁surreptitious	-10.9123
▁Disgust	-10.9123
▁pervert	-10.9123
▁reptile	-10.9123
proxim	-10.9123
▁sulph	-10.9123
▁evad	-10.9123
▁quarrel	-10.9123
▁dream	-10.9123
▁persever	-10.9123
▁trigger	-10.9123
▁whirl	-10.9123
▁steel	-10.9123
▁streak	-10.9123
▁wiki	-10.9123
▁reminiscen	-10.9123
▁expans	-10.9123
▁piercing	-10.9123
▁magnitude	-10.9123
▁ideology	-10.9123
▁royal	-10.9123
▁specify	-10.9123
▁vomit	-10.9123
▁poison	-10.9123
▁guess	-10.9123
▁impair	-10.9123
▁heterosexual	-10.9123
▁microorganism	-10.9123
▁knot	-10.9123
▁launch	-10.9123
▁wander	-10.9123
▁ticket	-10.9124
▁revenue	-10.9124
▁sloping	-10.9124
▁elicit	-10.9124
▁refresh	-10.9124
▁laughter	-10.9124
▁blanket	-10.9124
▁qualify	-10.9124
▁naked	-10.9124
▁clums	-10.9124
▁elsewhere	-10.9124
▁Land	-10.9124
▁refinement	-10.9124
▁purify	-10.9124
▁website	-10.9124
▁offense	-10.9124
▁email	-10.9125
▁impartial	-10.9125
▁reckless	-10.9125
▁platitude	-10.9125
▁explanation	-10.9126
▁feast	-10.9126
▁adherent	-10.9128
▁distill	-10.9128
▁daint	-10.9128
▁triangle	-10.9129
▁costum	-10.9129
▁Operati	-10.9129
▁indistinct	-10.913
▁uncontrolled	-10.913
▁barri	-10.913
▁enhance	-10.9131
▁rouse	-10.9131
▁obstruct	-10.9131
▁motivation	-10.9131
▁theatric	-10.9131
velo	-10.9131
▁sibling	-10.9133
▁combusti	-10.9133
▁celebration	-10.9133
▁templ	-10.9134
▁Shape	-10.9135
▁emission	-10.9135
▁Bare	-10.9135
▁Hard	-10.9135
▁Original	-10.9136
▁dart	-10.9136
▁boast	-10.9136
▁sink	-10.9138
▁absent	-10.914
▁athletic	-10.914
▁redden	-10.9142
▁wrapp	-10.9143
▁structural	-10.9146
▁brake	-10.9147
▁peri	-10.9149
▁articulate	-10.915
▁coach	-10.9151
▁mourn	-10.9152
▁visco	-10.9152
▁apparat	-10.9157
▁ethnicit	-10.9158
▁frolic	-10.9159
▁monast	-10.9159
▁recall	-10.916
▁premises	-10.916
▁par	-10.9162
▁unrel	-10.9163
ol	-10.9166
▁rubber	-10.9168
▁feudal	-10.9168
▁lover	-10.9168
▁shirt	-10.9168
▁Limit	-10.9168
▁ridge	-10.9169
▁chap	-10.9169
▁signify	-10.9172
▁heap	-10.9176
undan	-10.9178
▁starch	-10.9178
▁illuminate	-10.9179
▁su	-10.9186
▁submit	-10.9186
di	-10.9187
▁tropic	-10.9187
▁annul	-10.9188
▁explicitly	-10.9194
▁hyper	-10.9196
▁batt	-10.9198
▁organic	-10.9202
▁appointed	-10.921
▁driver	-10.921
▁scant	-10.9212
▁devise	-10.9213
▁beach	-10.9215
▁Su	-10.9216
▁fist	-10.9217
▁politics	-10.922
▁incline	-10.922
▁foundation	-10.9225
▁graphical	-10.9231
▁inspection	-10.9232
sure	-10.9243
▁chat	-10.9244
▁immatur	-10.9246
▁unpredictabl	-10.925
▁lesson	-10.9269
▁excited	-10.927
▁systematic	-10.9271
▁Twi	-10.9274
▁Pro	-10.9282
▁harden	-10.9287
▁outlet	-10.9291
▁him	-10.9294
▁humanity	-10.9311
izar	-10.9312
▁tune	-10.9316
▁noticeabl	-10.9319
undy	-10.9321
▁challeng	-10.9322
▁kn	-10.9323
▁simpl	-10.9331
▁Vi	-10.9332
▁deer	-10.9336
▁ignor	-10.9342
▁Fla	-10.935
aked	-10.9355
top	-10.9356
▁shy	-10.9362
▁fun	-10.9376
▁taxonom	-10.9377
▁transferr	-10.9385
▁stead	-10.9392
▁nap	-10.9394
▁unti	-10.9408
que	-10.9409
▁impede	-10.9418
nida	-10.9418
▁arise	-10.9422
▁arche	-10.9427
pillar	-10.9428
▁mat	-10.9441
▁characterize	-10.9452
▁beside	-10.9454
▁summ	-10.9456
▁lime	-10.9465
▁won	-10.9478
ivity	-10.9479
▁rocks	-10.948
maker	-10.949
▁patron	-10.9492
▁regulate	-10.9508
▁proteins	-10.9511
▁Le	-10.9517
▁coordinate	-10.9524
▁Gra	-10.9531
▁rely	-10.9548
▁st	-10.9548
of	-10.955
▁decrease	-10.9572
edious	-10.9577
tuck	-10.9579
ensure	-10.9591
uck	-10.9612
▁lobe	-10.9632
▁generat	-10.9644
▁palat	-10.9645
▁gene	-10.9647
▁spaces	-10.9665
▁Inter	-10.9673
ind	-10.9675
ggy	-10.968
▁cu	-10.9685
dour	-10.9709
▁canal	-10.9712
▁trend	-10.973
▁se	-10.9733
▁occurred	-10.9742
▁Ta	-10.9757
▁passenger	-10.976
otten	-10.9776
▁Deviati	-10.9778
humour	-10.9793
ntage	-10.9801
▁rap	-10.9806
gging	-10.9808
▁hesitat	-10.9812
▁overwhelm	-10.9814
▁kiss	-10.9817
face	-10.9817
▁mile	-10.9819
▁slid	-10.9821
morph	-10.9823
▁sooth	-10.983
L	-10.9835
▁practiced	-10.9835
fashion	-10.9836
white	-10.9838
level	-10.9839
experience	-10.984
inspiring	-10.9846
▁forge	-10.9848
hang	-10.9849
▁introduc	-10.9858
clock	-10.986
luck	-10.9865
▁du	-10.9874
▁punch	-10.9878
▁summar	-10.9881
▁crim	-10.9884
▁dig	-10.9898
▁communi	-10.9901
▁alkali	-10.9905
▁tur	-10.991
▁En	-10.991
▁fertil	-10.9912
▁coward	-10.9914
▁embod	-10.9915
▁engineer	-10.9918
cumul	-10.9921
▁finding	-10.9926
▁op	-10.993
arm	-10.993
▁restor	-10.9932
▁mention	-10.9933
ef	-10.9934
owed	-10.9935
tage	-10.9938
▁microscop	-10.9938
▁Trans	-10.995
▁Rom	-10.9956
ify	-10.996
▁esp	-10.9968
lus	-10.997
headed	-10.9971
▁tho	-10.9971
▁incident	-10.9971
▁orchestra	-10.9974
▁ignoran	-10.9978
▁locations	-11.0009
▁Back	-11.0022
▁metaphor	-11.0022
▁obsess	-11.0023
uring	-11.0024
▁cab	-11.0028
▁cult	-11.003
▁neighbor	-11.0031
▁repugnan	-11.0032
▁Insincere	-11.0032
▁Precise	-11.0032
▁universal	-11.0032
▁Caucasian	-11.0032
▁Necessar	-11.0032
▁condescend	-11.0032
▁embrac	-11.0032
▁endeavor	-11.0032
▁fragil	-11.0032
▁gossip	-11.0032
▁immense	-11.0032
▁inconsequent	-11.0032
▁neighbour	-11.0032
▁overthrow	-11.0032
▁relinquish	-11.0032
▁reproach	-11.0032
▁rifle	-11.0032
▁sleaz	-11.0032
▁submerge	-11.0032
▁surgery	-11.0032
▁thousand	-11.0032
▁tuft	-11.0032
▁velvet	-11.0032
▁Mustel	-11.0032
▁hippie	-11.0032
▁spider	-11.0032
▁bribe	-11.0032
▁cocktail	-11.0032
▁Protest	-11.0032
▁pornograph	-11.0032
▁irrational	-11.0032
▁peripher	-11.0032
▁prohibit	-11.0032
▁mathematics	-11.0032
▁hypothesi	-11.0032
▁liberal	-11.0032
▁discord	-11.0032
▁tumour	-11.0032
▁detach	-11.0032
▁bishop	-11.0032
▁reprehensi	-11.0032
▁notorious	-11.0032
▁spasm	-11.0032
▁wrinkle	-11.0032
▁Irrita	-11.0033
▁lunch	-11.0033
▁Web	-11.0033
▁veil	-11.0033
▁astonish	-11.0033
▁impersonal	-11.0033
▁Euro	-11.0033
▁receptacle	-11.0033
▁censor	-11.0033
▁twenty	-11.0033
▁gauge	-11.0033
▁multiplication	-11.0033
▁bucket	-11.0033
▁Light	-11.0033
▁primitiv	-11.0033
▁affix	-11.0033
▁Soft	-11.0033
▁stabb	-11.0033
▁brisk	-11.0033
▁malicious	-11.0033
▁skirt	-11.0033
▁vestment	-11.0034
▁Mental	-11.0034
▁Dirt	-11.0034
▁dump	-11.0034
▁eject	-11.0034
▁energetic	-11.0034
▁tiring	-11.0034
▁Typical	-11.0034
▁candle	-11.0034
▁breakdown	-11.0034
▁Distinct	-11.0035
▁priest	-11.0035
▁appendage	-11.0035
▁memorial	-11.0035
▁narrative	-11.0035
▁deliberation	-11.0036
▁gang	-11.0036
▁roast	-11.0036
▁translation	-11.0036
▁transmission	-11.0037
▁portend	-11.0037
▁impudent	-11.0038
▁Canad	-11.0038
▁unconscious	-11.0038
▁outcr	-11.0039
▁eruption	-11.0039
▁Constant	-11.0039
▁ruling	-11.0039
▁idiom	-11.0039
▁graceful	-11.004
▁fake	-11.004
▁corporation	-11.004
▁overnight	-11.0042
ez	-11.0042
▁glow	-11.0042
▁tribe	-11.0042
▁analysis	-11.0043
▁reproduction	-11.0043
▁transgender	-11.0043
▁bleach	-11.0043
▁dire	-11.0044
rumbling	-11.0045
▁profuse	-11.0045
▁hopeless	-11.0045
▁outlook	-11.0046
▁align	-11.0047
▁encumber	-11.0047
▁attendant	-11.0047
▁inspect	-11.0047
▁sadness	-11.0047
ensive	-11.0048
▁ethic	-11.005
▁array	-11.005
▁agitation	-11.005
▁insincere	-11.0051
tting	-11.0052
▁melody	-11.0053
mpire	-11.0053
▁department	-11.0054
▁Ei	-11.0054
▁defile	-11.0057
▁button	-11.0058
▁adventure	-11.0059
▁enforcement	-11.0061
▁spike	-11.0063
▁commission	-11.0063
▁colli	-11.0065
▁interruption	-11.0065
▁zi	-11.0067
▁volcano	-11.0067
▁180	-11.0068
▁withdrawal	-11.0069
▁musician	-11.007
▁marry	-11.007
▁capitalis	-11.0072
▁feminin	-11.0072
▁contradiction	-11.0075
▁sulf	-11.0075
▁fearful	-11.0075
▁sway	-11.0075
▁park	-11.0075
▁obey	-11.0077
▁supplied	-11.0077
▁aesthetic	-11.0078
▁taper	-11.0078
▁wheat	-11.0084
▁intestine	-11.0084
▁perish	-11.0085
lity	-11.0085
▁Cra	-11.0087
▁cave	-11.0087
▁irre	-11.0087
▁confident	-11.0096
▁bat	-11.0097
zard	-11.0097
▁transitive	-11.0104
▁wooden	-11.0108
▁corruption	-11.0109
▁thank	-11.0109
▁tooth	-11.0111
▁knitt	-11.0113
▁communicat	-11.0115
▁verse	-11.0117
▁intimate	-11.0118
▁doom	-11.0126
vil	-11.0126
▁Nor	-11.0127
▁exhibition	-11.0128
▁brows	-11.0128
▁annoyed	-11.0129
▁rash	-11.013
▁rott	-11.0132
da	-11.0133
▁spore	-11.0134
quisite	-11.0136
▁scath	-11.0143
ception	-11.0144
▁9	-11.015
bar	-11.015
▁trimming	-11.0151
▁headline	-11.0152
▁fibre	-11.0156
risk	-11.0156
hair	-11.0158
▁tactics	-11.0165
lic	-11.0171
▁chin	-11.0172
▁estimated	-11.0176
▁toll	-11.019
▁risky	-11.0193
▁Toward	-11.02
▁smoking	-11.0201
mation	-11.0202
▁finess	-11.0203
▁Char	-11.0208
▁afford	-11.021
uitar	-11.021
▁colon	-11.0218
▁courtes	-11.0218
▁demonstrat	-11.0219
ace	-11.0221
▁announce	-11.0226
▁l	-11.0229
▁bother	-11.0234
na	-11.0235
▁inner	-11.024
▁turns	-11.0243
▁pri	-11.0244
▁discourage	-11.0251
urable	-11.0259
▁crops	-11.0261
▁syn	-11.0276
▁monstro	-11.0276
aught	-11.0281
ality	-11.0284
ki	-11.0297
▁soak	-11.0299
ingdom	-11.0299
▁neurologic	-11.0304
▁exaggerat	-11.0307
your	-11.0307
color	-11.0308
▁navigat	-11.0313
▁tide	-11.0319
▁emul	-11.0319
her	-11.0327
▁sn	-11.033
▁react	-11.033
band	-11.0349
▁worker	-11.035
▁practis	-11.0355
inflammat	-11.0381
▁supervis	-11.0382
▁Co	-11.04
▁dear	-11.0407
▁dilute	-11.0411
tus	-11.0411
▁alienat	-11.0421
ake	-11.0421
▁bus	-11.0433
uter	-11.0439
skinn	-11.044
▁Creat	-11.044
▁fil	-11.0445
▁Ven	-11.0447
▁linen	-11.045
▁nomin	-11.0458
self	-11.0463
▁omit	-11.0487
▁exp	-11.0492
▁negat	-11.0497
▁liter	-11.05
rise	-11.0504
▁deni	-11.0509
pipe	-11.0512
▁Mar	-11.0512
▁bending	-11.0522
▁mytholog	-11.0529
▁terminat	-11.0531
ado	-11.0533
▁Non	-11.0543
▁passions	-11.0544
ential	-11.0545
▁qualifie	-11.0545
spite	-11.0546
▁corn	-11.0554
▁embodi	-11.0556
▁fence	-11.0569
▁Du	-11.0579
▁Arm	-11.0586
▁ascrib	-11.0597
oral	-11.0617
▁equit	-11.0622
▁mu	-11.0632
hap	-11.0639
ngry	-11.0649
▁rever	-11.0649
▁shoes	-11.0652
▁organize	-11.0673
field	-11.0678
▁bull	-11.068
▁assur	-11.0681
▁Mo	-11.0697
nce	-11.07
▁incapa	-11.0702
▁seclu	-11.0705
▁Off	-11.0708
▁tun	-11.0709
rection	-11.0714
▁shak	-11.0721
dorn	-11.0726
▁slim	-11.0728
con	-11.0742
▁pound	-11.0746
▁Far	-11.0748
▁ser	-11.0757
P	-11.0761
▁slu	-11.0762
hole	-11.0771
▁acquir	-11.0775
▁vibrat	-11.0792
ea	-11.0796
▁ne	-11.0807
▁cal	-11.0812
▁types	-11.0813
attle	-11.0813
wit	-11.0817
▁companion	-11.0818
duction	-11.0821
▁unjust	-11.0823
▁injured	-11.0825
important	-11.0827
▁Before	-11.0831
▁gase	-11.0831
burst	-11.0833
▁frighten	-11.0835
confidence	-11.0836
zone	-11.0836
E	-11.0837
hour	-11.0837
American	-11.0838
length	-11.0838
group	-11.0838
distance	-11.0838
family	-11.0838
broad	-11.084
fraction	-11.0852
▁moderat	-11.0855
contain	-11.0862
▁corresponden	-11.0879
▁accus	-11.088
ulu	-11.0881
▁lever	-11.0885
▁inspire	-11.0887
bearing	-11.09
▁instruct	-11.0901
▁administrat	-11.0901
▁monst	-11.0904
▁impos	-11.0905
avoid	-11.0909
ign	-11.0915
▁blad	-11.0917
air	-11.0918
ice	-11.0921
▁z	-11.0928
text	-11.0928
▁fag	-11.0943
▁spir	-11.0948
tter	-11.0953
new	-11.0955
▁unbr	-11.0958
▁incur	-11.0962
▁hypo	-11.097
bian	-11.0974
▁Sh	-11.0979
▁Furni	-11.098
▁cl	-11.0982
▁explor	-11.0984
▁gall	-11.0986
▁sauc	-11.0987
▁blun	-11.0987
▁attentive	-11.0987
igger	-11.099
▁batter	-11.0991
▁geographic	-11.0996
▁necessit	-11.0998
▁renew	-11.1004
10	-11.1004
▁wrap	-11.1008
▁neuro	-11.1011
static	-11.1013
▁ver	-11.1016
▁Gr	-11.1019
stone	-11.102
▁disc	-11.1021
▁pronoun	-11.1022
▁Large	-11.1024
▁scoo	-11.1028
▁invalid	-11.1031
▁inflam	-11.1031
▁fift	-11.1032
▁Collecti	-11.1032
▁Significant	-11.1032
▁Strong	-11.1032
▁Unpleasant	-11.1032
▁baptis	-11.1032
▁condiment	-11.1032
▁crustacean	-11.1032
▁elbow	-11.1032
▁endeavour	-11.1032
▁gelatin	-11.1032
▁larva	-11.1032
▁reckon	-11.1032
▁remorse	-11.1032
▁ruthless	-11.1032
▁uncontrollabl	-11.1032
▁prompt	-11.1032
▁swamp	-11.1032
▁omni	-11.1032
▁rib	-11.1032
▁inflict	-11.1032
▁Employ	-11.1032
▁holiday	-11.1032
▁phonograph	-11.1032
▁Regular	-11.1032
▁bastard	-11.1032
▁conceit	-11.1032
▁Friend	-11.1032
▁Unwilling	-11.1032
▁illumination	-11.1032
▁repeal	-11.1032
▁Compare	-11.1032
▁prosper	-11.1032
▁charisma	-11.1032
▁lemon	-11.1032
▁respirat	-11.1032
iferous	-11.1032
▁halt	-11.1032
▁neutral	-11.1032
adda	-11.1032
▁copper	-11.1032
▁matrix	-11.1032
▁Power	-11.1032
▁senior	-11.1032
▁ankle	-11.1032
▁sneak	-11.1033
▁Unusual	-11.1033
▁bluish	-11.1033
▁scratch	-11.1033
▁haught	-11.1033
▁straw	-11.1033
▁dessert	-11.1033
▁lawsuit	-11.1033
▁missile	-11.1033
▁subdue	-11.1033
▁exposure	-11.1033
▁subculture	-11.1033
▁breach	-11.1033
▁sperm	-11.1033
▁glove	-11.1033
▁frugal	-11.1033
▁filter	-11.1033
▁Fail	-11.1033
▁pregnan	-11.1033
▁sensibilit	-11.1033
▁Suff	-11.1033
▁deficient	-11.1034
▁clarify	-11.1034
▁expend	-11.1034
▁convers	-11.1034
▁agenda	-11.1034
▁compassionate	-11.1034
▁harmonize	-11.1034
▁cabinet	-11.1034
▁shovel	-11.1034
▁oblique	-11.1035
▁Strange	-11.1035
▁Scientolog	-11.1035
▁parade	-11.1035
▁chatter	-11.1035
▁Lying	-11.1036
▁cordial	-11.1036
▁cork	-11.1036
steroid	-11.1036
▁crust	-11.1036
incarnat	-11.1037
▁supplement	-11.1037
nomial	-11.1037
▁valve	-11.1037
▁photosynthe	-11.1037
▁ferment	-11.1037
▁fox	-11.1038
▁Intense	-11.1038
▁glacier	-11.1039
▁executive	-11.1039
▁Poor	-11.1039
▁ridiculous	-11.1039
▁Radia	-11.1039
▁pierce	-11.1039
ealand	-11.104
▁sanction	-11.104
▁Firm	-11.104
▁Arab	-11.104
▁indifferent	-11.104
xili	-11.1041
▁unkind	-11.1041
▁greenish	-11.1042
romatic	-11.1042
▁applica	-11.1042
▁chant	-11.1042
▁prolong	-11.1043
▁shout	-11.1043
▁reluctant	-11.1044
▁competitive	-11.1044
▁slut	-11.1044
▁drift	-11.1044
▁sacrifice	-11.1044
ons	-11.1045
▁pretentious	-11.1045
▁ghetto	-11.1045
▁notion	-11.1045
▁undo	-11.1046
elimina	-11.1046
rent	-11.1046
▁cat	-11.1046
▁genitals	-11.1047
▁blame	-11.1048
▁irritated	-11.1048
▁heir	-11.1049
▁hardship	-11.1049
▁infrequent	-11.105
▁torn	-11.1052
▁Cast	-11.1052
▁eternal	-11.1053
▁nest	-11.1055
▁listless	-11.1055
▁incomplete	-11.1055
▁boldness	-11.1055
▁Extend	-11.1057
▁imagined	-11.1058
▁bald	-11.1058
▁observe	-11.1059
cubic	-11.1059
▁comment	-11.1059
▁resolute	-11.1059
▁woodland	-11.106
ak	-11.106
▁restless	-11.1063
▁fantastic	-11.1063
▁buyer	-11.1064
▁assent	-11.1065
▁encompass	-11.1065
▁preoccup	-11.1067
▁complaint	-11.1068
consistent	-11.1068
▁childish	-11.1069
▁zealous	-11.1069
▁advantageous	-11.1071
▁nucle	-11.1072
▁tan	-11.1075
▁Place	-11.1076
▁ruler	-11.1077
▁dollars	-11.1077
▁peril	-11.1078
▁budget	-11.108
▁coating	-11.1083
▁Lag	-11.1085
▁define	-11.1085
▁hierarch	-11.1087
▁density	-11.1087
▁abbreviat	-11.1088
▁prop	-11.1088
▁punk	-11.1089
▁sew	-11.1089
▁humble	-11.109
▁tangle	-11.109
▁stripes	-11.1092
▁inept	-11.1093
▁Litt	-11.1095
ged	-11.1095
▁strap	-11.1095
▁conductor	-11.1097
legitimate	-11.1097
▁unsuitable	-11.1097
lain	-11.1098
▁chair	-11.1098
arrow	-11.11
▁slat	-11.11
▁cleaner	-11.11
six	-11.1101
▁pe	-11.1107
▁cone	-11.1109
▁cirr	-11.1109
neum	-11.111
▁equipp	-11.1111
▁twin	-11.1116
▁blend	-11.1119
▁reviv	-11.112
▁Appal	-11.1121
▁Sa	-11.1124
lender	-11.113
▁strive	-11.1131
▁spinn	-11.1131
▁chord	-11.1135
▁phyl	-11.1136
▁ironic	-11.1137
▁fanci	-11.1138
▁swimming	-11.114
ped	-11.1141
▁Into	-11.1144
▁Fine	-11.1149
▁limitation	-11.1151
▁aqua	-11.1162
ean	-11.1164
▁encircle	-11.1167
▁reside	-11.1168
▁career	-11.1168
▁inhal	-11.1169
▁dragg	-11.1171
▁lad	-11.1176
▁hire	-11.1177
▁forceful	-11.1181
▁hip	-11.1183
▁disappoint	-11.1184
order	-11.1187
▁unlike	-11.119
dri	-11.1194
▁daughters	-11.1198
ving	-11.1209
fender	-11.121
▁floating	-11.1214
▁annoying	-11.1216
▁snap	-11.122
dding	-11.1224
▁inhibit	-11.1228
ked	-11.1232
▁disseminate	-11.1237
▁washed	-11.1245
esh	-11.1246
▁approve	-11.1257
▁periodical	-11.1261
▁runner	-11.1267
▁Sola	-11.1267
▁mating	-11.1279
▁prov	-11.1281
ix	-11.1288
▁glor	-11.1297
▁au	-11.1301
▁clima	-11.1306
point	-11.1306
▁Impos	-11.1312
▁cur	-11.1319
ries	-11.1319
▁robe	-11.1323
ges	-11.1323
▁comp	-11.1326
▁jo	-11.1333
seem	-11.1334
chea	-11.1334
▁tangibl	-11.1338
tan	-11.1338
▁predetermine	-11.1343
▁unrest	-11.1351
▁hesitating	-11.136
ata	-11.1362
dian	-11.1363
glyce	-11.1371
▁idle	-11.1376
▁swindle	-11.1377
▁Avoid	-11.1383
▁agreeabl	-11.1384
▁expens	-11.1391
▁cautio	-11.141
▁terra	-11.1412
▁trustworth	-11.1414
tell	-11.1416
▁facilitat	-11.1419
rnal	-11.142
▁Relative	-11.1433
▁demons	-11.1441
fter	-11.1441
▁console	-11.1442
▁sor	-11.145
ts	-11.1453
▁resid	-11.1453
▁unmar	-11.1463
▁watche	-11.1482
▁Cut	-11.1483
mitting	-11.149
▁comic	-11.1492
▁Les	-11.1497
▁clu	-11.1498
▁Hi	-11.1502
▁heed	-11.1507
ut	-11.1507
▁litt	-11.1516
▁Ha	-11.1527
▁editor	-11.1534
▁bl	-11.1554
▁conservati	-11.1556
ember	-11.1556
▁emerge	-11.1557
▁gent	-11.1561
▁puzzl	-11.1578
▁Sign	-11.1579
▁brass	-11.1594
▁shut	-11.1599
▁contrive	-11.1599
mitted	-11.1602
▁Liv	-11.1609
▁vex	-11.1613
▁pus	-11.1621
▁brav	-11.1621
empt	-11.1622
pe	-11.1633
▁fri	-11.1636
cut	-11.1637
determined	-11.1639
▁continued	-11.164
▁bean	-11.1647
▁prey	-11.1651
ules	-11.1659
mark	-11.166
▁eas	-11.1661
▁hypocri	-11.1667
▁forbid	-11.1673
handed	-11.1684
▁mes	-11.1694
▁invite	-11.1715
bide	-11.1729
▁tape	-11.1732
itude	-11.1734
▁compose	-11.1736
▁sweat	-11.1737
ana	-11.1746
lating	-11.1748
▁Absolute	-11.175
▁dece	-11.1753
▁Je	-11.1761
T	-11.1766
▁protrud	-11.1773
▁serial	-11.1776
▁Tri	-11.1784
▁quarter	-11.1789
▁lap	-11.179
▁jet	-11.1794
▁reproducti	-11.1795
▁bio	-11.1796
▁ostentatio	-11.1803
▁val	-11.1815
▁sponsor	-11.182
ssociated	-11.1821
▁Use	-11.1831
▁lump	-11.1839
▁plu	-11.1843
au	-11.1853
▁reactions	-11.1853
▁scream	-11.1856
ubject	-11.1857
▁bug	-11.1863
▁ext	-11.1865
▁entangle	-11.1867
▁syllable	-11.187
▁trim	-11.1875
▁les	-11.1875
vice	-11.1901
▁corpor	-11.1916
▁drip	-11.1917
▁furnishing	-11.1918
▁packag	-11.1922
physical	-11.1923
cultivat	-11.1925
rived	-11.1929
▁farthe	-11.1929
oxide	-11.193
interest	-11.1932
▁Tire	-11.1936
ator	-11.1936
functional	-11.1936
fast	-11.1939
▁imper	-11.1941
▁incorporat	-11.1942
academic	-11.1944
▁Real	-11.1947
developed	-11.1947
job	-11.1948
paper	-11.1948
four	-11.1948
foot	-11.1949
shine	-11.1949
three	-11.1949
piece	-11.195
kind	-11.1972
section	-11.1973
▁perceiv	-11.1974
▁smok	-11.1976
▁pi	-11.1981
thought	-11.1983
▁secre	-11.1984
▁0	-11.1991
▁Go	-11.2001
affected	-11.2022
▁thr	-11.2022
▁dissolv	-11.2023
▁uneas	-11.2023
▁decre	-11.2027
▁flirt	-11.2045
▁compile	-11.2046
▁degrad	-11.2049
▁explicit	-11.2049
▁Extreme	-11.2052
▁danc	-11.2059
▁crop	-11.2064
nior	-11.2067
▁institutions	-11.2071
ner	-11.2087
▁100	-11.209
lifor	-11.2092
▁unreasonabl	-11.21
▁cav	-11.2107
▁save	-11.2108
▁excavat	-11.2122
▁inexp	-11.2124
▁compass	-11.2124
▁synchroniz	-11.2127
▁reluctan	-11.2131
▁convenien	-11.2131
▁Skill	-11.2132
▁multipli	-11.2133
ulous	-11.2136
ashionabl	-11.2136
trength	-11.2138
▁astr	-11.2139
▁bloc	-11.214
▁houses	-11.2141
▁hesitan	-11.2141
▁Special	-11.2141
▁Pleas	-11.2142
▁Hawaii	-11.2142
▁Japan	-11.2143
▁labyrinth	-11.2143
nunciation	-11.2143
▁horizon	-11.2143
▁tumult	-11.2143
▁Temporar	-11.2143
▁indiscriminate	-11.2143
▁obstinate	-11.2143
▁reprobat	-11.2143
▁thunder	-11.2143
Pakistan	-11.2143
hearted	-11.2143
symmetry	-11.2143
▁Egypt	-11.2143
▁Suggesti	-11.2143
▁advise	-11.2143
▁boisterous	-11.2143
▁delicac	-11.2143
▁disincline	-11.2143
▁elephant	-11.2143
▁foliage	-11.2143
▁harvest	-11.2143
▁hydrocarbon	-11.2143
▁impediment	-11.2143
▁inquisitive	-11.2143
▁malfunction	-11.2143
▁mercenar	-11.2143
▁mercur	-11.2143
▁pupil	-11.2143
▁recipient	-11.2143
▁thwart	-11.2143
▁unorthodox	-11.2143
▁wafer	-11.2143
▁weasel	-11.2143
▁Brazil	-11.2143
▁Victoria	-11.2143
▁mushroom	-11.2143
▁skull	-11.2143
▁victim	-11.2143
▁Britain	-11.2143
▁hurry	-11.2143
▁inconsidera	-11.2143
▁oblong	-11.2143
▁Certain	-11.2143
▁rudiment	-11.2143
▁whiskey	-11.2143
▁Essential	-11.2143
▁genitalia	-11.2143
▁nausea	-11.2143
▁pilot	-11.2143
▁plunder	-11.2143
▁rescue	-11.2143
▁uneven	-11.2143
▁vulva	-11.2143
▁Refus	-11.2143
▁buzz	-11.2143
▁Water	-11.2143
▁defecat	-11.2143
▁Elevat	-11.2143
▁pardon	-11.2143
▁prayer	-11.2143
▁smear	-11.2143
▁incite	-11.2143
▁elongate	-11.2143
▁Wild	-11.2143
▁perpendicular	-11.2143
▁tincture	-11.2143
▁garlic	-11.2143
▁noctu	-11.2143
▁vulnerability	-11.2143
▁intact	-11.2143
lavic	-11.2143
▁twig	-11.2144
▁dialogue	-11.2144
▁rebuke	-11.2144
▁chamber	-11.2144
▁grill	-11.2144
▁Entire	-11.2144
▁sullen	-11.2144
▁analyse	-11.2144
▁steward	-11.2144
▁provocati	-11.2144
▁unhealth	-11.2144
pedia	-11.2144
▁fanatic	-11.2144
▁bowel	-11.2144
▁warrant	-11.2144
▁politician	-11.2145
▁hoop	-11.2145
▁dusk	-11.2145
▁Continu	-11.2145
▁desert	-11.2145
▁interjection	-11.2145
▁southeast	-11.2145
▁churn	-11.2145
▁tower	-11.2145
▁Dangerous	-11.2145
▁clash	-11.2145
▁slash	-11.2145
▁idiot	-11.2145
▁desk	-11.2146
▁dock	-11.2146
▁resent	-11.2146
▁unyielding	-11.2146
▁cattle	-11.2146
▁claw	-11.2146
▁Proto	-11.2146
▁Isolat	-11.2146
▁protuberance	-11.2146
▁climate	-11.2146
▁Weak	-11.2146
▁discard	-11.2146
▁echo	-11.2147
▁loach	-11.2147
cus	-11.2147
▁fizz	-11.2147
▁comparative	-11.2147
blaze	-11.2148
▁copies	-11.2148
▁unconstrained	-11.2148
▁peak	-11.2148
ourage	-11.2148
▁retail	-11.2149
▁hint	-11.2149
▁antenna	-11.2149
▁oppress	-11.2149
▁computation	-11.215
▁vill	-11.215
▁optical	-11.215
▁reply	-11.2151
▁meditat	-11.2151
▁furious	-11.2151
▁pump	-11.2152
▁dust	-11.2152
▁forgive	-11.2152
etting	-11.2153
▁malic	-11.2153
▁recommendation	-11.2155
▁deities	-11.2155
▁parasit	-11.2156
▁Compos	-11.2156
▁campaign	-11.2157
▁hurri	-11.2157
▁calorie	-11.2157
▁minister	-11.2157
▁disapprov	-11.2157
▁pathogen	-11.2158
▁uncomfortable	-11.2159
▁reservation	-11.2159
▁integrity	-11.2159
▁False	-11.2161
▁conference	-11.2162
▁stake	-11.2163
▁weigh	-11.2163
▁neur	-11.2165
▁met	-11.2165
▁celebrate	-11.2166
▁awful	-11.2167
▁laser	-11.2168
▁injection	-11.2175
▁utiliz	-11.2176
▁mold	-11.2177
▁grudg	-11.2178
abular	-11.2179
▁bony	-11.218
▁prisoner	-11.2181
▁Semitic	-11.2181
▁apple	-11.2182
inian	-11.2183
▁distorted	-11.2183
▁uphold	-11.2183
▁detective	-11.2183
▁propos	-11.2184
▁Whit	-11.2185
▁electron	-11.2185
▁stories	-11.2187
▁mala	-11.2189
▁sham	-11.2189
▁withheld	-11.219
▁residu	-11.219
▁taxes	-11.2192
▁Why	-11.2193
▁selfish	-11.2194
▁ecsta	-11.2195
▁verd	-11.2197
audible	-11.2197
▁Other	-11.2198
▁indecorous	-11.22
▁thoughtful	-11.2202
▁Nin	-11.2205
▁scrupulous	-11.2205
▁airline	-11.2207
▁gear	-11.2208
llige	-11.2208
▁solvent	-11.2211
remium	-11.2212
▁intuitive	-11.2212
▁intoxicated	-11.2213
▁howl	-11.2214
▁reprove	-11.2214
▁compell	-11.2216
▁alleged	-11.2219
▁Area	-11.222
▁fleet	-11.2222
▁survive	-11.2223
▁polyg	-11.2223
▁perfection	-11.2224
▁idol	-11.2227
▁visitors	-11.2228
▁imp	-11.2228
phant	-11.2229
▁herbal	-11.2231
▁lucr	-11.2232
peptide	-11.2238
zen	-11.224
▁degrade	-11.224
tank	-11.224
▁facia	-11.2241
▁insertion	-11.2246
▁substantial	-11.2249
▁persist	-11.2256
▁waver	-11.2258
ie	-11.2262
▁preferr	-11.2263
▁hall	-11.2268
▁arts	-11.2274
▁pool	-11.2279
▁pill	-11.2293
otic	-11.2295
▁bale	-11.2297
▁fec	-11.2298
mpulsive	-11.2298
▁detest	-11.2301
▁gar	-11.2307
▁numerical	-11.231
▁shabb	-11.2318
▁coal	-11.2323
▁bet	-11.2327
▁forc	-11.2327
▁auto	-11.2334
▁fare	-11.2337
▁Late	-11.2337
▁hen	-11.2339
pertur	-11.2349
19	-11.2352
▁pant	-11.2353
▁cad	-11.2353
alley	-11.2363
▁particip	-11.2367
▁lasting	-11.2368
▁foe	-11.237
unt	-11.2376
▁procure	-11.2379
▁exclusi	-11.2381
▁crav	-11.2383
▁comfortabl	-11.2401
▁mamm	-11.2406
▁faulty	-11.2407
▁ordain	-11.2408
▁declar	-11.2417
▁kissing	-11.243
▁muc	-11.2437
▁constantly	-11.2448
owing	-11.2449
rose	-11.2462
ka	-11.2467
▁panc	-11.247
▁negotiat	-11.2474
▁advocat	-11.2482
▁permitt	-11.2487
▁La	-11.2491
▁suck	-11.2493
▁flora	-11.2494
dded	-11.25
heerful	-11.2512
▁despi	-11.2515
▁cooker	-11.2525
▁nast	-11.2527
▁protrude	-11.2528
▁coupl	-11.2528
▁evoke	-11.2536
ri	-11.2537
▁schools	-11.255
▁undertak	-11.2557
▁exi	-11.2571
▁whim	-11.2572
ade	-11.2582
ulus	-11.2591
▁attitudes	-11.2606
▁char	-11.2607
▁winds	-11.2617
▁environmental	-11.2633
lay	-11.2641
▁cape	-11.2641
▁sav	-11.2644
gan	-11.2647
rus	-11.2648
▁fa	-11.2652
▁supplie	-11.2653
▁interact	-11.2655
▁Comp	-11.2658
▁metall	-11.266
own	-11.2666
law	-11.2669
▁ray	-11.2673
bag	-11.2679
▁appare	-11.2681
ola	-11.2684
▁Chi	-11.2706
luminous	-11.271
aching	-11.2725
minous	-11.273
▁Bene	-11.2733
▁ut	-11.2744
defin	-11.2756
product	-11.2759
morous	-11.2765
ctable	-11.277
▁doubl	-11.2773
sive	-11.2775
▁habits	-11.2776
▁anatom	-11.2777
fication	-11.2777
▁nerves	-11.2782
▁Designat	-11.2784
▁syr	-11.2794
▁surprising	-11.2797
▁dictate	-11.2797
▁sto	-11.2799
ud	-11.2801
▁stair	-11.2813
cover	-11.2821
▁steadi	-11.2822
▁allerg	-11.2823
▁provoke	-11.2825
▁herd	-11.2828
tish	-11.2835
hi	-11.2835
▁jur	-11.2843
▁beard	-11.2847
▁pop	-11.2847
▁emerg	-11.2847
▁ph	-11.2847
eon	-11.2852
▁performer	-11.2855
mber	-11.2866
possible	-11.2878
▁Moral	-11.2879
online	-11.2884
ited	-11.2888
▁styl	-11.2936
▁hum	-11.2946
formation	-11.2947
tribute	-11.2947
▁manag	-11.2953
▁Stand	-11.2958
▁subsid	-11.2966
▁dia	-11.2968
▁magn	-11.2972
▁physic	-11.2979
▁aggregate	-11.298
▁bab	-11.2989
▁arous	-11.2996
▁dispose	-11.2998
▁interfere	-11.2998
▁festivit	-11.3001
▁flap	-11.3013
▁wad	-11.3019
▁curse	-11.302
▁exaggerate	-11.3021
sia	-11.3022
▁glu	-11.3027
rained	-11.3028
▁annoy	-11.303
▁expose	-11.303
▁assimilationis	-11.3031
▁vas	-11.3032
▁motivate	-11.3045
▁pit	-11.3054
▁judg	-11.3055
▁intimidate	-11.3057
▁chim	-11.3058
▁sandwich	-11.3058
gy	-11.3072
▁sni	-11.3083
for	-11.3104
▁Ge	-11.3106
▁evident	-11.3112
▁repuls	-11.3112
▁oblig	-11.3121
sane	-11.3129
ack	-11.3131
▁mammal	-11.3139
scal	-11.3142
fish	-11.3157
▁favouring	-11.3158
▁plum	-11.3166
▁float	-11.3168
▁Super	-11.3174
glob	-11.3174
uncle	-11.3188
vailab	-11.3189
▁accordan	-11.3189
tangibl	-11.319
wan	-11.319
prudent	-11.3191
stride	-11.3192
word	-11.3194
burn	-11.3195
shadow	-11.3195
track	-11.3196
establishment	-11.3196
green	-11.3197
difference	-11.3197
sleep	-11.3198
fire	-11.3199
woman	-11.3199
▁damag	-11.32
▁Cani	-11.3203
case	-11.3204
▁spice	-11.3206
F	-11.3206
cuit	-11.3207
vine	-11.3212
▁spine	-11.3215
▁alto	-11.3215
▁messag	-11.3217
▁soldiers	-11.3218
rum	-11.322
▁minut	-11.3223
▁Pen	-11.3226
les	-11.3236
splend	-11.3246
ude	-11.3246
▁appoint	-11.3253
stic	-11.3261
▁manufactur	-11.3262
matched	-11.3263
▁tag	-11.3267
▁dome	-11.3277
nude	-11.3286
▁Fast	-11.3287
▁resolut	-11.3293
▁tro	-11.3293
V	-11.3299
▁epi	-11.3299
▁opera	-11.33
fraud	-11.3304
erie	-11.3305
▁legitima	-11.3311
truck	-11.3314
odic	-11.3314
op	-11.3316
▁universit	-11.3332
▁flick	-11.3332
▁hast	-11.3335
▁societ	-11.3336
▁defi	-11.3337
▁mini	-11.3341
ased	-11.3344
▁cohe	-11.3349
▁knit	-11.3351
▁hol	-11.3357
▁smoke	-11.3358
iety	-11.3361
owl	-11.3366
antine	-11.337
sex	-11.3373
▁intersect	-11.3374
ssure	-11.3375
▁constrain	-11.3377
▁brillian	-11.3381
▁intellect	-11.3382
▁confront	-11.3383
▁chip	-11.3383
▁disarra	-11.3383
▁sancti	-11.3384
▁Prov	-11.3384
▁recommend	-11.3384
▁ridicul	-11.3385
▁ponder	-11.3385
▁wig	-11.3385
▁furthe	-11.3386
▁surf	-11.3388
▁humor	-11.3389
lect	-11.3391
▁We	-11.3392
ecutive	-11.3393
▁triang	-11.3393
▁smug	-11.3393
▁interven	-11.3393
▁tempest	-11.3393
▁zigzag	-11.3393
▁Accept	-11.3393
▁Accompan	-11.3393
▁Adapt	-11.3393
▁Discourag	-11.3393
▁Swedish	-11.3393
▁Thorough	-11.3393
▁amazing	-11.3393
▁aphorism	-11.3393
▁artifice	-11.3393
▁bewilder	-11.3393
▁bridesmaid	-11.3393
▁carbohydrate	-11.3393
▁clerk	-11.3393
▁collaborati	-11.3393
▁concord	-11.3393
▁counsel	-11.3393
▁deceptive	-11.3393
▁diminuti	-11.3393
▁encyclopedi	-11.3393
▁intrinsic	-11.3393
▁invertebrate	-11.3393
▁maneuver	-11.3393
▁perfume	-11.3393
▁petroleum	-11.3393
▁precursor	-11.3393
▁repudiate	-11.3393
▁teaspoon	-11.3393
▁unlawful	-11.3393
▁utensil	-11.3393
▁Distinguish	-11.3393
▁Govern	-11.3393
▁Smooth	-11.3393
▁reciprocat	-11.3393
▁recoil	-11.3393
▁subtract	-11.3393
▁Three	-11.3393
▁cereal	-11.3393
▁daub	-11.3393
▁extrapolat	-11.3393
▁uncouth	-11.3393
▁motif	-11.3393
▁Reflecti	-11.3393
▁amphibian	-11.3393
▁cinder	-11.3393
▁implicit	-11.3393
▁pencil	-11.3393
▁lubricant	-11.3393
▁obsolete	-11.3393
▁keel	-11.3393
▁neglig	-11.3393
▁apologetic	-11.3393
ffront	-11.3393
▁evaporat	-11.3393
quaint	-11.3393
▁diplomat	-11.3393
▁asymmetric	-11.3393
▁vocalisation	-11.3393
▁indoor	-11.3393
▁irritating	-11.3393
▁lethal	-11.3393
▁Experienc	-11.3393
▁precept	-11.3393
▁Harsh	-11.3393
▁rewrite	-11.3393
▁prospect	-11.3393
▁handicap	-11.3394
▁ejaculat	-11.3394
▁draft	-11.3394
▁enlighten	-11.3394
▁misrepresent	-11.3394
▁spawn	-11.3394
▁ugly	-11.3394
▁dinosaur	-11.3394
▁domineer	-11.3394
▁spray	-11.3394
▁unchang	-11.3394
▁gemstone	-11.3394
▁kingdom	-11.3394
▁savour	-11.3394
▁loft	-11.3394
▁testicle	-11.3394
▁plaster	-11.3394
▁flinch	-11.3394
▁overturn	-11.3394
▁fraudulent	-11.3394
▁drill	-11.3394
▁unintentional	-11.3394
▁creep	-11.3394
▁exempt	-11.3394
▁menstrua	-11.3394
▁grace	-11.3394
▁licence	-11.3394
▁spatial	-11.3394
ebod	-11.3394
▁Well	-11.3394
▁bail	-11.3394
▁adjoin	-11.3394
▁cuisine	-11.3394
▁neighborhood	-11.3394
▁malevolen	-11.3394
▁prescribe	-11.3394
▁neat	-11.3394
▁Tall	-11.3395
▁refuge	-11.3395
▁Low	-11.3395
▁invalidate	-11.3395
▁nerd	-11.3395
▁unfold	-11.3395
rdinary	-11.3395
▁squash	-11.3395
▁innermost	-11.3395
▁intervention	-11.3395
▁advertisement	-11.3395
▁agony	-11.3395
▁departure	-11.3396
▁urgent	-11.3396
▁vertebrate	-11.3396
▁deteriorat	-11.3396
▁Italy	-11.3396
▁weep	-11.3396
▁Adam	-11.3396
▁impeach	-11.3396
genic	-11.3397
▁funeral	-11.3397
▁rub	-11.3397
▁rasp	-11.3397
▁Hindu	-11.3397
▁liquor	-11.3397
▁Fuck	-11.3397
▁diligent	-11.3398
▁endorse	-11.3398
▁guile	-11.3398
▁Fair	-11.3398
▁heedless	-11.3398
▁reign	-11.3398
▁extravagant	-11.3398
▁recycl	-11.3398
▁Useful	-11.3399
▁jest	-11.3399
▁remember	-11.3399
tendo	-11.3399
▁contribution	-11.3399
▁enclosure	-11.3399
▁greyish	-11.3399
▁bump	-11.3399
▁kir	-11.34
▁Polynesian	-11.34
▁legend	-11.34
odes	-11.3401
▁gramma	-11.3401
▁scent	-11.3402
▁initiative	-11.3402
▁soot	-11.3403
▁sideways	-11.3403
▁criteri	-11.3404
rso	-11.3405
▁Virgin	-11.3405
▁republic	-11.3407
▁steril	-11.3407
▁Pale	-11.3407
▁synonym	-11.3408
▁disclose	-11.3408
▁setback	-11.3409
▁configur	-11.3409
▁immun	-11.3409
hilt	-11.3409
▁prosecut	-11.341
▁gutter	-11.341
▁spotted	-11.341
rsal	-11.3411
▁gods	-11.3412
▁beneficia	-11.3413
▁Indicat	-11.3414
▁Main	-11.3414
▁renewal	-11.3415
▁Display	-11.3416
▁flip	-11.3417
▁illustrate	-11.3418
▁evolution	-11.3419
▁abhorren	-11.3419
▁marsh	-11.342
lum	-11.342
▁pallid	-11.342
▁pores	-11.3421
hingama	-11.3422
▁flatten	-11.3423
▁overflow	-11.3425
determinate	-11.3426
▁compensate	-11.3426
▁replacement	-11.3427
▁Jan	-11.3427
▁Class	-11.3427
▁boss	-11.3428
▁invok	-11.3431
▁Star	-11.3432
▁pious	-11.3432
▁consult	-11.3432
▁settl	-11.3433
▁assertion	-11.3435
▁Sometime	-11.3435
▁Control	-11.3435
▁ripe	-11.3437
▁compression	-11.3439
▁gentleman	-11.344
▁commodity	-11.3441
▁resonan	-11.3443
ku	-11.3445
▁amend	-11.3445
▁sour	-11.3447
▁insulat	-11.3447
▁tonic	-11.3449
▁Primar	-11.3452
ponent	-11.3453
▁Wor	-11.3456
▁films	-11.3458
▁Attend	-11.3458
▁insolent	-11.3458
ith	-11.3461
▁menacing	-11.3462
table	-11.3463
▁He	-11.3463
▁viscera	-11.3463
▁successive	-11.3466
▁Fitt	-11.3468
▁presumed	-11.3468
▁replay	-11.347
▁Viol	-11.3471
▁oversee	-11.3472
▁Drunk	-11.3473
▁incompatible	-11.3477
base	-11.3477
▁sla	-11.3477
▁Ban	-11.3478
eligi	-11.3479
▁circulation	-11.348
▁prediction	-11.3482
cidental	-11.3483
▁advancement	-11.3484
oul	-11.3487
▁honourable	-11.3488
nsis	-11.349
▁discreet	-11.3491
▁strengthen	-11.3492
▁protester	-11.3492
▁lady	-11.3493
▁uneasy	-11.3494
▁notable	-11.3494
▁inscribe	-11.3496
▁forever	-11.3497
▁irritabl	-11.3501
tries	-11.3503
▁correctness	-11.3503
▁ever	-11.3505
emed	-11.3505
tithes	-11.3507
▁pest	-11.3508
▁indent	-11.3508
▁alert	-11.351
▁wage	-11.3518
▁poke	-11.3519
▁chi	-11.3522
▁traveller	-11.3522
▁arouse	-11.3523
▁inqui	-11.3526
▁icon	-11.3526
▁income	-11.3531
▁march	-11.3532
▁dipp	-11.3537
▁grim	-11.3557
▁cart	-11.356
▁greas	-11.3563
▁speeches	-11.3568
atic	-11.3574
plane	-11.3579
▁Mean	-11.3581
▁shipp	-11.3587
▁dele	-11.3589
▁habitat	-11.3595
vious	-11.3596
▁deeper	-11.3599
▁prudent	-11.3606
▁annual	-11.3607
▁dedicat	-11.3607
▁contend	-11.3613
iae	-11.3614
hew	-11.3615
▁improved	-11.3634
▁glyce	-11.3647
▁vigorously	-11.3649
inema	-11.365
▁scrap	-11.3655
▁Along	-11.3656
▁May	-11.3663
▁Hen	-11.3682
▁scal	-11.3685
▁segregat	-11.3685
▁accuse	-11.369
pt	-11.3695
etwork	-11.3699
scious	-11.3709
▁Devi	-11.3712
▁horizontally	-11.3715
sight	-11.3715
▁admirabl	-11.3717
▁sw	-11.372
va	-11.3739
tensive	-11.3743
ta	-11.3744
▁Whol	-11.3745
▁Air	-11.3748
rich	-11.3755
▁elegan	-11.3756
▁eminent	-11.3757
▁expos	-11.376
▁bis	-11.3766
tally	-11.3767
▁bulls	-11.3771
▁apprehensi	-11.3772
▁assimilation	-11.3772
key	-11.3779
▁dual	-11.378
▁dec	-11.3787
▁processor	-11.3787
▁que	-11.3793
▁hill	-11.3794
▁rum	-11.3797
ige	-11.3799
▁sticky	-11.381
▁alchem	-11.3812
lock	-11.3812
▁urinat	-11.3813
nis	-11.3818
pped	-11.3819
▁patholog	-11.3845
▁lightn	-11.3854
▁Ev	-11.3855
▁flex	-11.3856
fined	-11.3863
▁realiz	-11.3868
▁specification	-11.3874
▁wary	-11.388
▁fielder	-11.3887
▁halv	-11.3888
aut	-11.3891
usiness	-11.3891
▁immers	-11.3893
▁issu	-11.3902
holder	-11.3906
CO	-11.3908
▁laugh	-11.3917
▁unfi	-11.3923
▁tapes	-11.3931
ax	-11.3935
adro	-11.3939
▁Pa	-11.3952
▁confusing	-11.3952
▁fabricat	-11.396
uric	-11.3961
▁purpl	-11.3963
sulting	-11.3965
▁sap	-11.3988
lor	-11.3989
rate	-11.3995
▁smoothly	-11.3998
▁tile	-11.4029
▁vexatio	-11.4031
▁ballo	-11.4038
▁planets	-11.4042
edition	-11.4046
▁son	-11.4052
noid	-11.4053
v	-11.4057
▁Lu	-11.4071
▁needles	-11.4076
▁mut	-11.4077
▁refus	-11.4081
▁entitle	-11.4088
▁arteri	-11.409
▁script	-11.4094
▁Car	-11.4095
▁tru	-11.411
▁fou	-11.411
▁subord	-11.4114
▁12	-11.4119
▁k	-11.4137
boot	-11.4141
chlori	-11.4152
▁tens	-11.4156
fall	-11.4164
▁punctu	-11.4173
▁ascribe	-11.4189
▁fatt	-11.4191
▁frog	-11.4225
▁qua	-11.4225
▁extremit	-11.4234
ga	-11.4264
▁ingest	-11.4268
ull	-11.4269
ky	-11.4276
▁accumulat	-11.4295
▁alphabet	-11.4302
▁Hung	-11.4311
▁aristocrat	-11.4317
▁kilo	-11.432
▁mountains	-11.4326
▁sup	-11.4327
▁evok	-11.4331
▁Swi	-11.4332
sonic	-11.4334
break	-11.4342
▁Cheer	-11.4359
▁bloody	-11.4365
▁na	-11.4373
spection	-11.4387
▁diagnos	-11.439
▁Volu	-11.4394
▁Text	-11.4394
lore	-11.4398
came	-11.4411
▁disguise	-11.4414
rink	-11.4417
anding	-11.4427
tain	-11.4436
ral	-11.4445
ph	-11.4455
▁stitche	-11.4463
tch	-11.4466
▁procession	-11.4467
▁inward	-11.4472
ird	-11.4477
outh	-11.4483
wind	-11.4485
▁update	-11.4485
▁hills	-11.4501
▁temperat	-11.4505
▁bacteri	-11.4523
▁grape	-11.4528
▁horseman	-11.4534
ha	-11.4535
ensitive	-11.4537
▁assure	-11.4538
▁mould	-11.454
▁intro	-11.4549
▁extremes	-11.4556
▁feather	-11.4557
cc	-11.4558
▁Dec	-11.4572
▁Both	-11.4573
▁prevail	-11.4578
▁costs	-11.4579
rid	-11.4584
▁displeas	-11.4585
▁vanish	-11.4587
uc	-11.4592
▁tact	-11.4595
▁ard	-11.4595
abash	-11.4596
▁spar	-11.4599
▁dependenc	-11.46
▁Em	-11.4601
terminal	-11.4606
roar	-11.4609
righteous	-11.461
▁grat	-11.4612
▁conceptual	-11.4612
annual	-11.4614
where	-11.4614
▁glanc	-11.4616
▁needle	-11.4616
evident	-11.4618
lasting	-11.462
ogene	-11.462
▁crosse	-11.4622
screen	-11.4623
satisfie	-11.4624
walk	-11.4624
familiar	-11.4625
aft	-11.4625
parallel	-11.4625
century	-11.4626
anim	-11.4626
student	-11.4626
focus	-11.4626
▁neo	-11.4627
European	-11.4627
book	-11.4627
world	-11.4627
extended	-11.4627
through	-11.4628
slant	-11.4628
root	-11.4629
shade	-11.4629
concern	-11.4632
rigg	-11.4642
▁optim	-11.4649
▁afore	-11.466
▁tracks	-11.466
llic	-11.466
take	-11.4665
dress	-11.4666
timate	-11.4669
▁nas	-11.467
▁abound	-11.4675
▁trembl	-11.4677
▁squander	-11.4679
coherent	-11.468
comfortable	-11.468
▁van	-11.4685
▁Hungar	-11.4686
ferior	-11.4691
▁tap	-11.4699
▁thor	-11.4704
tical	-11.4707
cious	-11.4716
uick	-11.4725
▁secur	-11.4725
▁advoca	-11.4727
▁Hu	-11.4731
estation	-11.4733
ette	-11.4734
▁wrestl	-11.4741
▁weaken	-11.4743
▁Can	-11.4743
fielder	-11.4746
▁recognis	-11.4748
itable	-11.4748
upon	-11.4752
▁lace	-11.4753
▁unions	-11.4754
▁qualit	-11.4757
▁vac	-11.4757
▁currenc	-11.476
▁king	-11.4761
anthrop	-11.4773
▁celebrat	-11.4774
▁squir	-11.4778
▁Mis	-11.4783
▁revel	-11.4783
mic	-11.4783
oung	-11.4783
▁meri	-11.4783
▁surp	-11.4784
▁awake	-11.4794
▁admitt	-11.4799
▁Connect	-11.4801
▁inflect	-11.4802
▁pronounc	-11.4804
▁hypoc	-11.4805
▁fin	-11.4806
▁efficien	-11.4809
▁independen	-11.481
left	-11.481
▁tempo	-11.4811
▁comprehensi	-11.4812
99	-11.4814
alabas	-11.4815
▁jewel	-11.4816
▁insisten	-11.4816
▁narrat	-11.4817
▁utilize	-11.4817
▁reposit	-11.4818
▁Port	-11.4818
commendation	-11.4818
▁directional	-11.482
▁contagio	-11.4822
▁Anacardi	-11.4822
▁Austria	-11.4822
▁Buddhis	-11.4822
▁Construct	-11.4822
▁Descend	-11.4822
▁Exaggerated	-11.4822
▁Expect	-11.4822
▁Second	-11.4822
▁Trouble	-11.4822
▁abstruse	-11.4822
▁arthropod	-11.4822
▁ceramic	-11.4822
▁consecrat	-11.4822
▁detract	-11.4822
▁dexter	-11.4822
▁exclamat	-11.4822
▁expenditure	-11.4822
▁explode	-11.4822
▁inscrutable	-11.4822
▁letharg	-11.4822
▁mollusk	-11.4822
▁nightclub	-11.4822
▁octopus	-11.4822
▁portrait	-11.4822
▁potato	-11.4822
▁progenitor	-11.4822
▁seizure	-11.4822
▁trifle	-11.4822
▁undergarment	-11.4822
▁unequal	-11.4822
Abraham	-11.4822
▁adverb	-11.4822
▁brooch	-11.4822
▁desolate	-11.4822
▁despair	-11.4822
▁parody	-11.4822
▁sheriff	-11.4822
▁stupefy	-11.4822
▁gnaw	-11.4822
▁mirror	-11.4822
▁nonchalan	-11.4822
▁fragran	-11.4822
▁survey	-11.4822
▁Traditional	-11.4822
▁epicene	-11.4822
▁Heav	-11.4822
▁intrude	-11.4822
kko	-11.4822
▁dazzl	-11.4822
▁ribbon	-11.4822
▁kook	-11.4822
▁parcel	-11.4822
▁Corporation	-11.4822
▁equator	-11.4822
▁scroll	-11.4822
▁Effect	-11.4822
▁cranium	-11.4822
▁denounce	-11.4822
▁surreal	-11.4822
▁canvas	-11.4822
▁irritation	-11.4822
▁resort	-11.4822
ocre	-11.4822
▁league	-11.4822
▁stroll	-11.4822
▁cyber	-11.4822
▁spatter	-11.4822
▁marijuana	-11.4822
▁hedge	-11.4822
▁mortis	-11.4822
▁improbable	-11.4822
▁stamen	-11.4822
▁sheath	-11.4822
▁Proper	-11.4822
▁whale	-11.4822
▁straightforward	-11.4822
▁sweetheart	-11.4822
▁degenerate	-11.4822
▁assort	-11.4822
▁unmov	-11.4822
▁conspiracy	-11.4822
▁hazard	-11.4822
▁orthodox	-11.4822
▁twitch	-11.4822
▁appease	-11.4823
▁slick	-11.4823
▁darling	-11.4823
▁speculati	-11.4823
▁brut	-11.4823
▁haul	-11.4823
▁Merc	-11.4823
stril	-11.4823
▁gratuitous	-11.4823
▁helmet	-11.4823
▁constrict	-11.4823
▁invisibl	-11.4823
▁enact	-11.4823
▁repetitive	-11.4823
▁fetch	-11.4823
▁diameter	-11.4823
▁lava	-11.4823
▁subscribe	-11.4823
▁cushion	-11.4823
▁spill	-11.4823
▁clatter	-11.4823
▁contort	-11.4823
▁entreat	-11.4823
▁gangren	-11.4823
▁elite	-11.4824
▁nitrogen	-11.4824
▁Confiden	-11.4824
▁wake	-11.4824
▁lieu	-11.4824
▁mottl	-11.4824
▁revision	-11.4824
▁corporate	-11.4824
▁unclear	-11.4824
kra	-11.4824
▁unskill	-11.4824
▁Wood	-11.4824
luminescen	-11.4824
▁vocalization	-11.4824
▁projectile	-11.4825
ppet	-11.4825
▁chicken	-11.4825
▁copyright	-11.4825
▁impertinent	-11.4825
▁cough	-11.4826
▁harmonious	-11.4826
▁hymn	-11.4826
aunch	-11.4826
▁interlock	-11.4826
▁stale	-11.4826
▁slit	-11.4826
▁demeanor	-11.4826
▁Calm	-11.4826
malaria	-11.4827
abre	-11.4827
▁cleric	-11.4827
▁Mel	-11.4827
▁clarity	-11.4827
▁mysterious	-11.4827
▁Intellectual	-11.4828
▁Bold	-11.4828
▁theories	-11.4828
▁dand	-11.4829
ulent	-11.483
▁Bound	-11.483
▁Truth	-11.483
rtex	-11.483
▁kink	-11.483
▁mock	-11.483
▁potas	-11.4831
▁gambling	-11.4831
▁Secret	-11.4831
▁oppressive	-11.4831
▁Moro	-11.4831
karyo	-11.4832
▁delimit	-11.4832
▁simulation	-11.4832
▁Inflammat	-11.4832
▁indentation	-11.4833
▁falsehood	-11.4833
▁untruth	-11.4834
▁tale	-11.4834
▁conced	-11.4835
▁cru	-11.4835
▁dough	-11.4836
▁cardinal	-11.4836
▁leaflet	-11.4836
▁preposition	-11.4836
▁Border	-11.4838
▁erotic	-11.4838
▁strato	-11.4838
▁Consistent	-11.4839
occer	-11.4839
juven	-11.484
▁proclaim	-11.484
▁anchor	-11.484
▁conclusive	-11.484
▁humid	-11.4841
▁silicate	-11.4841
▁cement	-11.4841
▁forbear	-11.4841
▁choir	-11.4842
▁banish	-11.4842
▁harassment	-11.4843
▁solar	-11.4843
▁pedal	-11.4843
▁omen	-11.4843
▁warfare	-11.4844
▁lure	-11.4845
▁falsifi	-11.4847
▁virgin	-11.4849
▁Pain	-11.485
▁metaphysic	-11.4851
▁slee	-11.4853
▁barb	-11.4853
▁vibration	-11.4853
▁Opposite	-11.4854
▁Social	-11.4854
▁incessant	-11.4855
▁proton	-11.4855
▁rig	-11.4856
gage	-11.4857
▁brew	-11.4857
▁caring	-11.4857
▁dung	-11.4858
▁condu	-11.4859
▁heredit	-11.4859
▁fortification	-11.4859
▁prematurely	-11.486
▁perce	-11.4861
▁pier	-11.4861
▁stow	-11.4864
pone	-11.4864
▁corona	-11.4868
competent	-11.4869
▁bury	-11.4869
▁constitution	-11.487
hit	-11.487
▁capric	-11.4871
▁racial	-11.4872
▁awaken	-11.4873
▁adaptation	-11.4878
▁tomato	-11.4879
▁sedate	-11.4879
▁countercultur	-11.488
educated	-11.4882
▁indicator	-11.4882
▁boor	-11.4882
▁bliss	-11.4882
▁disorganiz	-11.4882
▁overlapping	-11.4883
▁Line	-11.4885
▁naming	-11.4887
▁earthen	-11.489
cili	-11.4894
▁leak	-11.4895
▁lug	-11.4899
▁modulat	-11.49
▁cancell	-11.4901
▁authentic	-11.4902
▁accustom	-11.4902
▁fortunate	-11.4904
▁circumcis	-11.4904
▁postulate	-11.4904
▁defender	-11.4904
▁butter	-11.4904
▁concealment	-11.4904
▁dense	-11.4905
▁chromatic	-11.4906
nction	-11.4907
sensitive	-11.4909
▁pyr	-11.4909
▁sy	-11.4913
▁hare	-11.4914
▁arrival	-11.4915
▁cracker	-11.4915
▁orchestrate	-11.4917
oxen	-11.4917
▁logg	-11.4918
ograph	-11.4918
▁radiate	-11.492
uickly	-11.492
bone	-11.4923
▁Fear	-11.4925
▁bunch	-11.4927
▁skim	-11.4928
▁phonetic	-11.4931
▁unk	-11.4935
structive	-11.4936
▁gut	-11.4936
▁exud	-11.4937
▁soluble	-11.4937
▁microbe	-11.4939
▁misce	-11.4939
▁contraction	-11.494
▁ham	-11.494
▁metre	-11.4941
▁Cuba	-11.4943
▁dying	-11.4943
▁suggestion	-11.4945
▁enlarged	-11.4946
▁cent	-11.4946
▁sensibl	-11.4955
ntary	-11.4955
tes	-11.4955
▁throaty	-11.4958
▁theft	-11.4962
▁Nation	-11.4963
▁trem	-11.4963
▁panic	-11.4963
▁graph	-11.4964
cha	-11.4964
fit	-11.4965
lush	-11.4966
▁bra	-11.4966
▁decree	-11.4968
▁dancer	-11.4974
▁Fur	-11.4976
▁phil	-11.4977
▁lateral	-11.4979
▁myst	-11.4983
▁melting	-11.4984
▁oscillat	-11.4985
▁spire	-11.4985
▁archae	-11.4986
▁revolve	-11.4986
▁intercept	-11.4987
▁regimen	-11.4989
▁sorr	-11.4991
▁spiny	-11.4992
▁allure	-11.5001
▁microscope	-11.5003
grit	-11.5005
▁mul	-11.5006
ebra	-11.5014
▁blo	-11.5025
loom	-11.5026
▁whit	-11.5027
dcast	-11.5029
itious	-11.5032
▁impoten	-11.5034
▁bloodl	-11.5035
▁Ex	-11.5036
▁pose	-11.5039
▁indirectly	-11.5042
tinue	-11.5043
▁displeasing	-11.5045
▁raid	-11.5047
▁tar	-11.5051
▁porc	-11.5053
▁Wh	-11.5056
▁assemble	-11.5056
mmer	-11.5063
▁dub	-11.5066
existence	-11.5073
▁Freed	-11.5075
▁predicat	-11.5078
▁sparkl	-11.5079
iff	-11.5094
fied	-11.5097
▁integrate	-11.51
▁consumer	-11.5101
▁cultivate	-11.5108
▁mudd	-11.5111
▁conclude	-11.5112
trospecti	-11.5116
▁quar	-11.5124
▁fraction	-11.5135
eek	-11.5137
▁cartoon	-11.5138
▁tea	-11.5141
-1	-11.5144
▁deprecat	-11.5147
ock	-11.5152
▁dit	-11.5153
hus	-11.5153
▁ether	-11.516
▁tumble	-11.5167
▁tease	-11.5178
ara	-11.5183
ride	-11.5189
▁baffl	-11.5191
▁por	-11.5208
▁circulat	-11.5212
▁improperly	-11.5213
im	-11.5226
pressed	-11.5233
lines	-11.5234
▁totter	-11.5234
▁bun	-11.5235
▁covert	-11.5238
locu	-11.5238
▁recite	-11.524
▁committ	-11.5256
▁allur	-11.5258
▁Presiden	-11.5261
▁Fact	-11.527
▁sophistica	-11.5272
than	-11.5272
agnostic	-11.5273
ems	-11.5279
▁blows	-11.5282
▁obe	-11.5285
▁disable	-11.5286
▁codo	-11.5286
▁delude	-11.5295
▁commo	-11.5298
ulsion	-11.5299
▁gra	-11.5305
▁monk	-11.5325
▁90	-11.5338
▁cro	-11.5343
tically	-11.5346
▁traveling	-11.5346
▁reform	-11.5353
▁Foo	-11.5354
▁sensational	-11.5354
ro	-11.5358
sided	-11.536
▁liabilit	-11.5371
▁cit	-11.5382
▁Cre	-11.5382
no	-11.5387
▁don	-11.539
lix	-11.5391
▁squeez	-11.5393
iable	-11.5401
▁disbeliev	-11.5404
▁till	-11.5404
▁mus	-11.5413
▁Need	-11.5418
▁designate	-11.542
col	-11.5423
▁concentrate	-11.5424
iquet	-11.5428
▁quot	-11.5429
▁undu	-11.5436
▁cares	-11.544
▁enable	-11.5451
▁heath	-11.5456
▁divis	-11.5456
▁crossing	-11.5463
▁carbonate	-11.5466
▁sen	-11.5472
▁Capa	-11.5472
uction	-11.5481
▁equ	-11.5484
▁Hum	-11.5489
amine	-11.5493
pes	-11.5493
▁cr	-11.55
feit	-11.5503
▁Soviet	-11.5506
▁metric	-11.5518
▁hir	-11.5522
▁contra	-11.5533
tub	-11.5549
▁shad	-11.5556
▁dictat	-11.5556
▁angel	-11.5559
▁fluids	-11.556
▁weav	-11.5566
▁tang	-11.5579
▁Preced	-11.5583
▁bro	-11.559
▁pun	-11.559
▁paste	-11.559
▁authoriz	-11.559
▁divin	-11.56
ique	-11.5611
▁collected	-11.5615
▁cau	-11.5629
geon	-11.5652
tal	-11.5653
▁guid	-11.5656
▁tricks	-11.5657
▁cor	-11.5661
median	-11.5662
sail	-11.5667
▁fret	-11.5677
▁ov	-11.5686
▁gu	-11.5687
▁aff	-11.569
verse	-11.5695
mp	-11.5702
angels	-11.5702
structur	-11.5712
berg	-11.572
ero	-11.572
▁id	-11.5721
▁distributi	-11.5739
▁My	-11.5742
▁repay	-11.5744
▁Hat	-11.575
▁seasoned	-11.5751
emo	-11.5779
nd	-11.5781
orial	-11.5787
po	-11.5791
▁industri	-11.5792
▁curs	-11.5802
▁pip	-11.5805
liva	-11.5808
▁exemplif	-11.5809
▁originate	-11.5813
▁Fr	-11.5831
▁popula	-11.5842
got	-11.5853
kin	-11.5874
thy	-11.5885
oil	-11.5887
tri	-11.5914
leg	-11.5914
▁disorders	-11.5917
satisfact	-11.5918
▁nullif	-11.5923
inous	-11.5927
nova	-11.5931
▁deco	-11.594
▁diverg	-11.5948
lunt	-11.5952
play	-11.5958
latan	-11.5964
critically	-11.5969
▁indulge	-11.5972
posed	-11.5974
▁malignan	-11.5975
▁u	-11.5975
hip	-11.5979
▁Favorabl	-11.598
▁sever	-11.5989
▁frustrat	-11.5989
▁Imm	-11.5995
ath	-11.6005
▁prim	-11.6005
▁limp	-11.6008
▁emp	-11.601
edium	-11.6019
illa	-11.6028
ver	-11.6045
▁entr	-11.6048
ca	-11.6053
ison	-11.606
car	-11.6062
▁Pan	-11.6063
▁unhapp	-11.6069
rouch	-11.6072
▁denot	-11.6079
nguish	-11.6079
cking	-11.608
mbo	-11.6085
VI	-11.6091
▁ston	-11.6093
▁bel	-11.6094
ttributive	-11.6099
▁deface	-11.6105
▁tolera	-11.6108
pita	-11.6112
operation	-11.6121
▁undertake	-11.6125
pod	-11.6125
ury	-11.6127
controlled	-11.6128
▁temperament	-11.6143
▁slap	-11.6144
▁bal	-11.6145
quet	-11.6145
ggard	-11.6147
▁tre	-11.6152
DS	-11.6152
olation	-11.6154
▁none	-11.6156
▁imperi	-11.6157
fford	-11.6159
bove	-11.6168
▁sprinkle	-11.6172
▁nin	-11.6173
▁familiari	-11.6174
iction	-11.6179
ican	-11.6181
ition	-11.6183
▁gem	-11.6187
▁emphasiz	-11.619
▁investigat	-11.6191
erving	-11.6192
▁abridge	-11.6197
▁Intend	-11.6207
sert	-11.6218
▁ba	-11.6223
▁daughter	-11.623
held	-11.6232
B	-11.6236
valent	-11.6237
▁matche	-11.6244
▁Writ	-11.6245
▁provis	-11.6245
▁Strai	-11.6247
▁cod	-11.6252
▁convinc	-11.6256
historic	-11.6258
munition	-11.6258
ficient	-11.6261
worth	-11.6265
brew	-11.6267
▁lipo	-11.6269
bait	-11.6271
ophone	-11.6274
▁comput	-11.6277
pool	-11.6279
py	-11.6279
conscious	-11.6281
▁supervise	-11.6286
▁inhale	-11.6287
respect	-11.6287
semantic	-11.6287
▁mop	-11.6288
shore	-11.6288
core	-11.6288
complicated	-11.629
chill	-11.629
contradict	-11.6291
minute	-11.6291
verbal	-11.6291
sphere	-11.6291
plan	-11.6291
acceptable	-11.6292
coat	-11.6294
energy	-11.6294
kick	-11.6294
child	-11.6294
alcohol	-11.6295
entice	-11.6296
bird	-11.6296
worm	-11.6297
food	-11.6298
genre	-11.6298
precise	-11.6299
load	-11.63
W	-11.63
join	-11.6301
▁threaten	-11.6304
force	-11.6308
tained	-11.631
sp	-11.6311
hines	-11.6313
jack	-11.6313
U	-11.6314
manner	-11.6315
subtle	-11.6318
▁we	-11.6318
divide	-11.6321
▁trimm	-11.6326
▁petti	-11.6335
mony	-11.6337
playing	-11.6337
mouth	-11.6338
▁emitt	-11.6341
▁carpet	-11.6344
▁suppress	-11.6344
▁digni	-11.6344
lipped	-11.6347
▁choos	-11.6349
scale	-11.6355
limit	-11.6356
talk	-11.6358
good	-11.6361
guish	-11.6366
famous	-11.6368
▁ped	-11.6372
▁confection	-11.6373
ways	-11.6379
minded	-11.6393
▁Resou	-11.6395
▁ascend	-11.6399
eat	-11.6399
itigated	-11.6409
▁Ill	-11.6415
▁technolog	-11.6427
ormand	-11.6428
fficient	-11.6431
▁commodit	-11.6431
nnui	-11.6433
▁shrew	-11.6439
▁Shre	-11.6442
ielding	-11.6443
▁imagine	-11.6445
▁dar	-11.6445
▁sensitiv	-11.6446
acy	-11.6449
brand	-11.6452
brows	-11.6458
aiss	-11.6463
▁appr	-11.6464
▁afflict	-11.6466
▁efficac	-11.6466
ron	-11.6467
▁precis	-11.6469
condit	-11.647
▁fulfil	-11.6471
▁overlap	-11.6473
▁invasi	-11.6476
yard	-11.6479
▁slack	-11.648
▁repr	-11.6483
roli	-11.6484
▁Republic	-11.6486
▁expedi	-11.6486
▁phono	-11.6487
abinet	-11.6487
▁Hypo	-11.6488
eluctant	-11.6488
eterosexual	-11.6488
pertinent	-11.6488
▁dyna	-11.6488
▁unwarrant	-11.6488
▁Familiar	-11.6488
▁gauze	-11.6488
adagascar	-11.6488
spectacle	-11.6488
▁Childish	-11.6488
▁Dexter	-11.6488
▁Differ	-11.6488
▁Enthusias	-11.6488
▁Fuzhou	-11.6488
▁Insignificant	-11.6488
▁Length	-11.6488
▁Refrain	-11.6488
▁Remote	-11.6488
▁Wrong	-11.6488
▁anoint	-11.6488
▁befuddle	-11.6488
▁blossom	-11.6488
▁catastroph	-11.6488
▁clinicopatholog	-11.6488
▁deficienc	-11.6488
▁disciple	-11.6488
▁disgrace	-11.6488
▁envelope	-11.6488
▁hickory	-11.6488
▁magistrate	-11.6488
▁plentiful	-11.6488
▁rhizome	-11.6488
▁scruple	-11.6488
▁spellbind	-11.6488
▁stipend	-11.6488
▁unattractive	-11.6488
▁undamage	-11.6488
disproportionate	-11.6488
▁Install	-11.6488
▁Israel	-11.6488
▁Particular	-11.6488
▁Through	-11.6488
▁enthrall	-11.6488
▁ingratiat	-11.6488
▁longitudinal	-11.6488
▁nurse	-11.6488
▁overboost	-11.6488
▁receptive	-11.6488
▁Iceland	-11.6488
▁adjudge	-11.6488
▁ellip	-11.6488
▁multiply	-11.6488
▁spear	-11.6488
▁beckon	-11.6489
▁ceiling	-11.6489
▁drastic	-11.6489
▁hydrolysis	-11.6489
▁revolt	-11.6489
▁sacrament	-11.6489
▁sift	-11.6489
▁thermometer	-11.6489
▁dishonor	-11.6489
▁derogat	-11.6489
▁blemish	-11.6489
▁draught	-11.6489
▁gravitation	-11.6489
▁piano	-11.6489
▁worst	-11.6489
▁illegitimate	-11.6489
▁Influence	-11.6489
▁Testicle	-11.6489
▁implication	-11.6489
▁Surround	-11.6489
▁geoc	-11.6489
▁millennium	-11.6489
▁peasant	-11.6489
▁flutter	-11.6489
▁poult	-11.6489
▁snatch	-11.6489
▁batsman	-11.6489
▁dastard	-11.6489
▁profound	-11.6489
▁ethnograph	-11.6489
▁feign	-11.6489
▁incision	-11.6489
▁appliance	-11.6489
▁inconvenien	-11.6489
▁nourish	-11.6489
▁colloquial	-11.6489
▁reciprocal	-11.6489
▁trumpet	-11.6489
▁Fresh	-11.6489
▁clownish	-11.6489
▁limestone	-11.6489
▁diffuse	-11.6489
▁goalkeeper	-11.6489
▁nun	-11.6489
▁sister	-11.6489
▁petition	-11.6489
▁Moderate	-11.6489
▁Cool	-11.6489
▁fratern	-11.6489
▁surveillance	-11.6489
▁handgun	-11.6489
▁tread	-11.6489
▁deaf	-11.6489
▁recruit	-11.6489
▁wretch	-11.6489
omorphism	-11.6489
▁graft	-11.6489
▁metabolism	-11.6489
▁sublim	-11.6489
▁entrap	-11.6489
▁muff	-11.6489
▁replicate	-11.6489
▁exalt	-11.6489
▁reappear	-11.6489
▁stall	-11.6489
▁sprite	-11.6489
▁elder	-11.6489
▁contiguous	-11.6489
89	-11.6489
▁bluster	-11.6489
▁perverse	-11.649
▁euphoria	-11.649
▁Includ	-11.649
▁harrow	-11.649
▁wax	-11.649
▁thigh	-11.649
ndish	-11.649
▁bracelet	-11.649
▁airport	-11.649
▁frantic	-11.649
▁kinship	-11.649
phany	-11.649
▁Recent	-11.649
▁inadvertent	-11.649
▁forearm	-11.649
▁rigorous	-11.649
▁torture	-11.649
▁ambu	-11.649
▁snobbish	-11.649
▁pouch	-11.649
▁toxic	-11.649
▁enormous	-11.649
▁libert	-11.649
▁antigen	-11.649
▁brood	-11.6491
▁Eager	-11.6491
▁dick	-11.6491
▁Look	-11.6491
▁Dress	-11.6491
▁crab	-11.6491
imbu	-11.6491
oncise	-11.6491
▁mandible	-11.6491
▁Content	-11.6491
▁entrust	-11.6491
▁Occup	-11.6491
▁renown	-11.6491
▁Brief	-11.6491
▁Normal	-11.6491
▁Mere	-11.6491
▁detriment	-11.6491
▁Wind	-11.6491
▁Cook	-11.6492
▁Persist	-11.6492
▁fluor	-11.6492
▁soli	-11.6492
▁dissent	-11.6492
▁spiteful	-11.6492
▁condom	-11.6492
▁disrespect	-11.6492
▁cognitive	-11.6492
▁duck	-11.6492
▁Political	-11.6492
▁Long	-11.6492
▁impetu	-11.6492
▁gallery	-11.6492
▁lurk	-11.6493
▁luxurious	-11.6493
rmal	-11.6493
▁sparse	-11.6493
nomy	-11.6493
▁soap	-11.6493
▁suitably	-11.6494
▁bloom	-11.6494
▁handwrit	-11.6494
▁parish	-11.6494
▁lymph	-11.6494
▁paddle	-11.6494
▁spool	-11.6494
▁correlation	-11.6494
▁textile	-11.6495
▁ambition	-11.6495
▁Dam	-11.6495
pagan	-11.6495
▁violin	-11.6495
▁elimination	-11.6495
▁waterfall	-11.6495
▁feat	-11.6495
▁upsetting	-11.6495
▁liqu	-11.6495
▁freight	-11.6496
▁guarantee	-11.6496
▁House	-11.6496
▁banner	-11.6496
▁Epi	-11.6496
spun	-11.6496
▁cox	-11.6496
▁Decorat	-11.6496
▁flourish	-11.6497
▁Communist	-11.6497
▁nit	-11.6497
▁civilization	-11.6497
ess	-11.6498
▁furrow	-11.6498
▁maid	-11.6498
▁reinforce	-11.6498
▁brownish	-11.6498
risqu	-11.6498
inae	-11.6498
▁contestant	-11.6498
▁wipe	-11.6499
occasi	-11.6499
▁lumber	-11.6499
▁Rich	-11.6499
▁Bright	-11.65
▁shameless	-11.65
▁Fin	-11.65
▁saint	-11.65
▁Technical	-11.6501
▁Severe	-11.6501
▁vis	-11.6501
▁smile	-11.6501
▁weird	-11.6501
▁anecdote	-11.6501
decimal	-11.6501
▁corpse	-11.6502
▁flush	-11.6502
▁shelve	-11.6502
▁oriental	-11.6502
▁inventory	-11.6502
▁Cost	-11.6503
▁accommodat	-11.6503
▁Sound	-11.6503
▁idealize	-11.6504
▁intermediary	-11.6504
▁injurious	-11.6505
▁psycho	-11.6505
achus	-11.6505
reviously	-11.6505
▁glucos	-11.6505
▁certification	-11.6505
▁commonplace	-11.6506
▁acri	-11.6507
rces	-11.6508
▁synthesize	-11.6508
▁Athen	-11.6508
▁cruci	-11.6509
▁Grace	-11.6509
▁crash	-11.6509
▁contemporar	-11.651
▁Eu	-11.651
▁investor	-11.6511
▁vapor	-11.6511
▁infertil	-11.6512
▁bunk	-11.6513
▁gown	-11.6513
▁Condition	-11.6514
▁blast	-11.6514
ok	-11.6514
▁Lou	-11.6515
verge	-11.6515
▁transformation	-11.6516
▁popularize	-11.6516
▁ceremonious	-11.6517
▁Fil	-11.6519
▁wager	-11.652
▁believable	-11.652
▁elastic	-11.6521
▁reel	-11.6523
▁acquisition	-11.6525
▁Verb	-11.6525
▁allusion	-11.6526
▁wasteful	-11.6526
kist	-11.6526
▁disallow	-11.6526
▁hamm	-11.6526
▁hammer	-11.6527
inister	-11.6528
▁Slight	-11.6528
▁outflow	-11.6529
een	-11.653
roceeding	-11.6532
▁preach	-11.6532
▁attributively	-11.6533
▁possessive	-11.6533
▁lexic	-11.6535
▁lateen	-11.6535
▁tuber	-11.6535
warm	-11.6536
▁brim	-11.6536
▁Hast	-11.654
▁Germanic	-11.6541
atria	-11.6542
▁foment	-11.6542
▁patern	-11.6542
▁cranky	-11.6543
▁satiric	-11.6544
▁vulnerab	-11.6548
▁venue	-11.6548
▁villain	-11.6548
▁folio	-11.6548
▁forecast	-11.6548
▁mint	-11.6548
▁Hel	-11.6551
▁voter	-11.6551
▁Simpl	-11.6553
ford	-11.6553
▁dragon	-11.6553
▁inattentive	-11.6555
▁incongruous	-11.6556
▁nobility	-11.6556
▁straighten	-11.6558
▁potent	-11.656
▁sportive	-11.656
▁multitud	-11.6562
▁contaminat	-11.6566
▁breeze	-11.6569
▁beak	-11.657
versa	-11.657
▁prose	-11.6572
▁memorable	-11.6576
▁crooked	-11.6577
▁decod	-11.6577
▁dynamic	-11.6577
▁expell	-11.6577
▁Pay	-11.6578
▁Ow	-11.6579
▁abstain	-11.658
▁trapp	-11.658
▁colorful	-11.6583
ieve	-11.6584
▁imperfection	-11.6584
▁collar	-11.6587
▁unthink	-11.6587
▁amino	-11.6587
▁venge	-11.6588
▁Deba	-11.6588
owes	-11.6589
▁slipp	-11.6591
▁loving	-11.6595
▁towel	-11.6597
▁chic	-11.6597
▁kneel	-11.6599
nella	-11.6599
nergetic	-11.6602
▁northwest	-11.6603
▁goat	-11.6604
▁Slow	-11.6607
▁gray	-11.6608
▁ent	-11.6611
▁bid	-11.6614
▁nud	-11.6614
▁bland	-11.6614
▁plank	-11.6617
▁Len	-11.662
▁intermix	-11.6622
etee	-11.6623
▁agriculture	-11.6624
rice	-11.6628
▁antipath	-11.6633
▁unseen	-11.6633
▁listener	-11.6634
colonial	-11.6637
icism	-11.6638
▁weed	-11.6641
▁reporter	-11.6641
▁shod	-11.6642
▁barn	-11.6642
▁choke	-11.6642
eth	-11.6643
▁bleed	-11.6644
▁adulterate	-11.6649
▁Unclea	-11.6649
nizing	-11.6654
hag	-11.6656
▁saw	-11.6658
cture	-11.6665
▁dys	-11.6669
▁kin	-11.6674
lab	-11.6676
▁administrati	-11.6677
▁digits	-11.6678
▁Def	-11.6683
▁thicken	-11.6689
eria	-11.6692
▁dood	-11.6694
▁furn	-11.6696
▁splendo	-11.6696
nx	-11.6696
▁prick	-11.6696
▁hunter	-11.6699
ST	-11.6699
▁preserv	-11.6701
▁Hot	-11.6703
▁Boy	-11.6704
▁socio	-11.6705
▁artful	-11.6711
▁captiv	-11.6716
▁prescripti	-11.6718
▁reader	-11.6718
1000	-11.672
▁bidd	-11.6723
▁unfores	-11.6724
▁weld	-11.6725
▁allocate	-11.6725
▁Prom	-11.6726
▁sativ	-11.6736
▁grate	-11.6739
served	-11.674
▁migrat	-11.6741
▁conceptualiz	-11.6743
▁jam	-11.6746
▁Mass	-11.6746
▁convincing	-11.675
▁notch	-11.6752
▁fertiliz	-11.6753
enuous	-11.6754
orida	-11.6754
▁dominat	-11.6762
▁Cu	-11.6763
rnament	-11.6764
inner	-11.6764
▁wooll	-11.6769
▁fling	-11.677
lands	-11.677
▁Carr	-11.677
tar	-11.6775
▁lu	-11.6779
▁dement	-11.6782
▁delete	-11.6782
▁duplicat	-11.6787
▁span	-11.6791
ossible	-11.6794
▁exhal	-11.6794
erial	-11.6796
▁mono	-11.6796
▁bureaucrat	-11.6799
atelli	-11.68
▁backhand	-11.6803
▁confirmed	-11.6806
▁Lin	-11.6806
▁cookie	-11.6811
▁Total	-11.6812
▁hay	-11.6817
▁tabo	-11.6819
▁optional	-11.682
▁alley	-11.6823
▁Sw	-11.6823
▁dent	-11.6828
▁corporal	-11.6832
▁Secure	-11.6835
▁relaxed	-11.6839
tandard	-11.6841
▁hasty	-11.6843
oolish	-11.6845
▁examin	-11.6847
prop	-11.6848
▁ch	-11.6856
▁alkal	-11.6857
▁Sunn	-11.6862
▁creed	-11.6865
▁irreveren	-11.6869
rs	-11.687
num	-11.6876
manship	-11.688
▁Chang	-11.6882
▁spy	-11.6886
lapping	-11.6887
▁preten	-11.6896
▁disprove	-11.6901
▁frightening	-11.6903
▁Comfortabl	-11.6904
latitude	-11.6915
▁viol	-11.6916
han	-11.6928
▁stitch	-11.6929
▁withstand	-11.6936
▁overcom	-11.6937
▁meta	-11.6938
biology	-11.6943
▁Age	-11.6943
▁unreal	-11.6952
cane	-11.6956
▁androg	-11.6957
ulic	-11.6959
▁unin	-11.6959
▁mend	-11.6963
▁excis	-11.6963
▁sandwiche	-11.6964
▁fea	-11.6969
▁Her	-11.6972
▁Cur	-11.6975
▁mon	-11.6977
▁Jud	-11.6988
ather	-11.6988
anded	-11.6989
▁Par	-11.6995
eur	-11.6997
thorn	-11.7
▁virtu	-11.7008
▁disguis	-11.7014
▁frustrate	-11.7014
rade	-11.7014
▁hydra	-11.7016
▁patrioti	-11.7017
▁tray	-11.7021
▁Favor	-11.7024
ra	-11.7024
▁Red	-11.7025
▁malign	-11.7031
olen	-11.7032
▁motivat	-11.7035
▁bustl	-11.7037
▁cra	-11.704
▁Mu	-11.7042
▁salar	-11.7048
▁accelerat	-11.7051
▁nine	-11.7052
grain	-11.7052
28	-11.7066
▁lawn	-11.7072
▁satisfactor	-11.7074
▁Opposit	-11.7074
▁aggregat	-11.7079
▁deprave	-11.7085
▁trends	-11.7091
▁plasti	-11.7097
▁justi	-11.7097
▁Imp	-11.7101
ils	-11.7106
ttery	-11.7107
▁caus	-11.7119
▁nav	-11.7145
▁educate	-11.7148
page	-11.7153
uality	-11.7156
▁mous	-11.7169
▁therap	-11.7191
acial	-11.7193
ised	-11.7198
▁mot	-11.7215
boat	-11.7218
▁kindle	-11.7219
▁Rai	-11.7231
▁shaving	-11.7238
▁nutriti	-11.7251
▁fibr	-11.7251
▁Refine	-11.7259
▁descript	-11.7261
pper	-11.7278
▁tactic	-11.728
▁topping	-11.7286
fer	-11.7289
▁cars	-11.7302
▁devi	-11.7305
bery	-11.7337
▁lighter	-11.7356
not	-11.7366
ough	-11.7367
▁crap	-11.7374
▁Eri	-11.7387
▁shag	-11.7388
mo	-11.7395
probable	-11.7403
ou	-11.7405
▁pearl	-11.7406
osaur	-11.7409
specified	-11.7409
▁larg	-11.7412
inches	-11.7412
▁Tre	-11.742
▁irres	-11.7422
wa	-11.7424
▁reli	-11.7424
▁butt	-11.743
touches	-11.743
▁acids	-11.744
ipelag	-11.7445
▁hu	-11.7451
▁revil	-11.7457
oke	-11.7461
▁sequ	-11.7462
▁Fac	-11.7477
dget	-11.7479
▁chor	-11.7479
▁credi	-11.748
▁notic	-11.7481
▁periods	-11.7482
▁eventual	-11.7486
▁Indi	-11.7494
ret	-11.7496
▁seep	-11.75
▁Ot	-11.7503
ungent	-11.751
tort	-11.7512
▁disconnect	-11.7519
▁dem	-11.752
▁untru	-11.7539
▁sat	-11.7544
unk	-11.7555
fe	-11.7568
esophag	-11.7572
▁tub	-11.7572
▁Sovietis	-11.7578
qualifi	-11.7602
ocyt	-11.7617
▁seduce	-11.7625
chemical	-11.7632
urs	-11.7635
exil	-11.7648
▁delegate	-11.7651
▁Convers	-11.7658
▁prime	-11.7659
▁hypocrit	-11.7661
▁unp	-11.7664
pulsive	-11.7664
▁calci	-11.7666
raid	-11.7668
▁probab	-11.7675
▁veni	-11.7675
pour	-11.7675
omolog	-11.7677
ston	-11.7691
noxious	-11.7695
sembl	-11.7699
la	-11.77
▁peg	-11.7703
▁coax	-11.7708
▁rape	-11.7712
orbid	-11.7741
▁bay	-11.7742
▁nominat	-11.7743
graph	-11.7746
▁eras	-11.7746
▁granul	-11.7751
stem	-11.7751
▁sh	-11.7752
phic	-11.7776
pop	-11.778
io	-11.7782
▁glue	-11.7795
wed	-11.7796
▁growl	-11.7796
▁fixate	-11.7801
ger	-11.7803
how	-11.7806
aware	-11.7815
▁rebellio	-11.7825
▁sc	-11.7839
cile	-11.784
ranking	-11.7843
critical	-11.7847
shes	-11.7849
ven	-11.7854
▁alg	-11.7854
empti	-11.7864
▁Lev	-11.788
iate	-11.7886
▁specialis	-11.789
nine	-11.7894
value	-11.7902
▁hom	-11.7903
itter	-11.791
▁eleg	-11.7911
▁apprehen	-11.7914
sk	-11.7914
▁bon	-11.7924
▁anticipate	-11.7927
▁Mac	-11.7931
▁transcend	-11.7933
▁pu	-11.7936
escent	-11.7942
halk	-11.7948
ionism	-11.7949
ially	-11.7956
ox	-11.7958
vile	-11.7964
▁Mil	-11.7968
▁fl	-11.7972
duced	-11.7981
lit	-11.7984
bey	-11.7997
come	-11.7998
▁discourag	-11.7998
direct	-11.7999
atched	-11.8003
▁Communi	-11.8003
▁plea	-11.8005
tip	-11.8009
▁inconsisten	-11.8016
▁touched	-11.8017
▁lik	-11.8022
▁fer	-11.8024
▁Si	-11.8026
lance	-11.8028
▁Change	-11.8037
sufficien	-11.8038
▁excit	-11.8039
tire	-11.8049
ache	-11.805
reput	-11.8055
▁procur	-11.8062
lated	-11.8073
▁anal	-11.8077
dain	-11.8083
▁conclud	-11.8085
strict	-11.8088
▁Impro	-11.8093
▁dat	-11.8109
ag	-11.8118
▁complian	-11.8121
ption	-11.8128
▁simp	-11.8136
lute	-11.8142
▁clam	-11.8144
▁Emotion	-11.8149
▁Lo	-11.8151
▁associat	-11.8155
▁Weigh	-11.8156
ang	-11.816
▁cigarette	-11.8161
cott	-11.8166
roll	-11.8171
NO	-11.8172
▁alleg	-11.8172
▁Poli	-11.8173
pplied	-11.8175
proved	-11.8182
▁transi	-11.8182
▁prince	-11.8184
▁lodg	-11.8189
comb	-11.8203
phil	-11.8205
▁pret	-11.8205
announc	-11.8206
abba	-11.8215
ueen	-11.8216
crumb	-11.8216
▁numeric	-11.8223
▁activate	-11.8224
▁ci	-11.8227
▁guy	-11.8229
lous	-11.8229
ject	-11.8234
▁stud	-11.8236
▁cla	-11.8237
▁lung	-11.8239
ttention	-11.8244
ole	-11.8249
jig	-11.8254
▁regional	-11.8261
organiz	-11.8264
civiliz	-11.8266
hog	-11.8274
operat	-11.8275
original	-11.8276
▁coerce	-11.8278
▁melt	-11.8279
▁prickl	-11.828
normal	-11.8281
ively	-11.8281
▁torch	-11.8283
dragg	-11.8286
▁lands	-11.8286
▁App	-11.8289
screw	-11.8289
decisive	-11.8289
ambigu	-11.829
passive	-11.829
▁foreigner	-11.8291
▁scan	-11.8291
blue	-11.8291
strand	-11.8291
trans	-11.8291
shoot	-11.8292
nature	-11.8292
communication	-11.8293
economic	-11.8293
breed	-11.8293
official	-11.8294
first	-11.8295
two	-11.8295
species	-11.8295
tight	-11.8295
▁reg	-11.8297
generation	-11.8299
forth	-11.8301
about	-11.8301
speed	-11.8302
pleasure	-11.8306
weak	-11.8309
curve	-11.831
tones	-11.8319
coin	-11.8319
mail	-11.832
rth	-11.832
resistan	-11.8328
▁ros	-11.8329
owered	-11.8331
▁meddle	-11.8331
vasive	-11.8333
loqu	-11.8333
ense	-11.8335
▁Mas	-11.8343
count	-11.8344
▁cred	-11.8346
composition	-11.8346
corporat	-11.8347
ulated	-11.8355
asia	-11.8362
box	-11.8365
udge	-11.8365
▁assassinat	-11.8366
▁surviv	-11.8367
coal	-11.8367
▁stri	-11.8368
▁Tra	-11.8371
ctor	-11.8372
▁prostitut	-11.8375
ophyte	-11.8383
▁stur	-11.8393
▁vir	-11.8395
▁Fit	-11.8397
▁joyful	-11.84
rod	-11.8402
▁padd	-11.8404
▁mano	-11.8404
▁substanti	-11.8408
ella	-11.841
landish	-11.8416
▁rust	-11.8416
toric	-11.8417
compatible	-11.8419
▁crank	-11.8424
▁Character	-11.8427
▁belittl	-11.843
▁Abs	-11.8431
rousal	-11.8435
▁clo	-11.8436
▁angr	-11.8438
▁illustr	-11.8438
abbat	-11.8438
lves	-11.8439
▁intoxicat	-11.844
▁conduc	-11.8442
availab	-11.8443
cade	-11.8444
▁palli	-11.8445
▁insincer	-11.8445
ternational	-11.8446
crucia	-11.8446
▁locate	-11.8446
worker	-11.8452
modern	-11.8453
▁isolate	-11.8453
▁befit	-11.8456
▁Origina	-11.8456
▁waters	-11.8456
▁anim	-11.8458
aux	-11.8461
ggar	-11.8461
▁recreation	-11.8464
imand	-11.8464
▁pra	-11.8466
▁certificat	-11.8468
▁deduct	-11.8468
▁convict	-11.8469
more	-11.847
bias	-11.8472
▁Borde	-11.8473
▁numb	-11.8473
▁swimm	-11.8475
▁geni	-11.8475
xhaust	-11.8476
scopal	-11.8476
▁impuden	-11.8476
intelligibl	-11.8478
▁happi	-11.8478
▁famili	-11.8479
▁thug	-11.8479
▁Provo	-11.848
▁apost	-11.8481
▁gutt	-11.8483
▁antenn	-11.8483
▁proto	-11.8483
▁supple	-11.8484
anguage	-11.8484
ffemina	-11.8484
curring	-11.8484
ntertain	-11.8485
Tub	-11.8485
ksha	-11.8486
iabetes	-11.8487
▁buck	-11.8487
liberation	-11.8487
ogical	-11.8487
▁blank	-11.8487
crements	-11.8487
rthodox	-11.8487
ompous	-11.8488
parate	-11.8488
▁cigar	-11.8488
▁zodiac	-11.8488
euv	-11.8488
▁confess	-11.8488
▁faeces	-11.8488
finitesimal	-11.8488
manifold	-11.8488
trusive	-11.8488
▁Approximate	-11.8488
▁Demonstrati	-11.8488
▁Domestic	-11.8488
▁Favour	-11.8488
▁Important	-11.8488
▁Micro	-11.8488
▁Nazi	-11.8488
▁Obvious	-11.8488
▁Powder	-11.8488
▁Prejudice	-11.8488
▁Public	-11.8488
▁abstinen	-11.8488
▁acquiesce	-11.8488
▁altruis	-11.8488
▁artifact	-11.8488
▁bashful	-11.8488
▁calendar	-11.8488
▁cloister	-11.8488
▁coconut	-11.8488
▁cultivar	-11.8488
▁daydream	-11.8488
▁debauch	-11.8488
▁dictionary	-11.8488
▁diffiden	-11.8488
▁discontinu	-11.8488
▁divulg	-11.8488
▁embryo	-11.8488
▁encroach	-11.8488
▁ensnar	-11.8488
▁equivalenc	-11.8488
▁escort	-11.8488
▁extinguish	-11.8488
▁fascinate	-11.8488
▁foppish	-11.8488
▁franchise	-11.8488
▁hydroponic	-11.8488
▁immortal	-11.8488
▁impractical	-11.8488
▁incriminat	-11.8488
▁inexorabl	-11.8488
▁instigate	-11.8488
▁irrefutable	-11.8488
▁masonry	-11.8488
▁mathematician	-11.8488
▁membranous	-11.8488
▁mollusc	-11.8488
▁morpheme	-11.8488
▁nefarious	-11.8488
▁occupant	-11.8488
▁patriarch	-11.8488
▁pharmacological	-11.8488
▁pivot	-11.8488
▁precarious	-11.8488
▁procrastinati	-11.8488
▁promulgate	-11.8488
▁protract	-11.8488
▁pseudonym	-11.8488
▁putrefacti	-11.8488
▁receptor	-11.8488
▁shriek	-11.8488
▁spectator	-11.8488
▁staple	-11.8488
▁stratagem	-11.8488
▁subversive	-11.8488
▁thrift	-11.8488
▁twentieth	-11.8488
▁unbelievabl	-11.8488
▁uncommon	-11.8488
▁ungrateful	-11.8488
▁vaccinat	-11.8488
▁Aggressive	-11.8488
▁Albania	-11.8488
▁Evaluat	-11.8488
▁Intoxicat	-11.8488
▁anorexi	-11.8488
▁chirp	-11.8488
▁consequent	-11.8488
▁democra	-11.8488
▁enchant	-11.8488
▁exhort	-11.8488
▁hallucinogen	-11.8488
▁jungle	-11.8488
▁lattice	-11.8488
▁murmur	-11.8488
▁platonic	-11.8488
▁smelt	-11.8488
▁unwitting	-11.8488
▁Protect	-11.8488
▁axiom	-11.8488
▁cephalopod	-11.8488
▁engross	-11.8488
▁splendid	-11.8488
▁Blame	-11.8489
▁Devot	-11.8489
▁Divid	-11.8489
▁symmetric	-11.8489
▁totalitarian	-11.8489
▁cerebr	-11.8489
▁kidnap	-11.8489
▁Egg	-11.8489
▁Joy	-11.8489
▁blatant	-11.8489
▁deflect	-11.8489
▁strenuous	-11.8489
▁scrub	-11.8489
▁desponden	-11.8489
▁lemur	-11.8489
▁revoke	-11.8489
▁despot	-11.8489
▁semiconductor	-11.8489
▁excrete	-11.8489
▁Loyal	-11.8489
▁tablecloth	-11.8489
▁Admir	-11.8489
▁Disagree	-11.8489
▁Nav	-11.8489
▁suicide	-11.8489
▁monopoli	-11.8489
▁bulb	-11.8489
▁conglomerat	-11.8489
▁titillati	-11.8489
▁diaph	-11.8489
▁incentive	-11.8489
▁percussi	-11.8489
▁clump	-11.8489
▁monoton	-11.8489
▁piston	-11.8489
▁autumn	-11.8489
▁bellows	-11.8489
▁immaterial	-11.8489
▁ermine	-11.8489
▁dialect	-11.8489
▁cosmetic	-11.8489
▁Rapid	-11.8489
▁grocer	-11.8489
▁gruel	-11.8489
▁tumultuous	-11.8489
▁Abandon	-11.8489
▁Homo	-11.8489
▁tunnel	-11.8489
▁hobb	-11.8489
▁lewd	-11.8489
▁deliri	-11.8489
▁scour	-11.8489
▁retard	-11.8489
▁bargain	-11.8489
▁Tele	-11.8489
▁straggl	-11.8489
▁Unfair	-11.8489
▁chili	-11.8489
btrusive	-11.8489
▁perennial	-11.8489
▁whimsical	-11.8489
▁desperate	-11.8489
▁Lord	-11.8489
▁Chief	-11.8489
▁Strict	-11.8489
▁Jump	-11.8489
▁quill	-11.8489
▁pragmatic	-11.8489
▁indispos	-11.8489
▁blink	-11.8489
▁enlist	-11.8489
▁advisor	-11.8489
▁Potential	-11.8489
▁exponent	-11.849
▁delineate	-11.849
▁Intensif	-11.849
▁What	-11.849
▁dissolute	-11.849
cific	-11.849
▁secular	-11.849
▁Roll	-11.849
▁ailment	-11.849
▁broil	-11.849
▁blunder	-11.849
▁rhe	-11.849
▁enumeration	-11.849
wield	-11.849
▁panthe	-11.849
▁drench	-11.849
▁stunning	-11.849
▁delusion	-11.849
▁deport	-11.849
▁stump	-11.849
▁cramp	-11.849
▁satire	-11.849
▁skilful	-11.849
▁feroci	-11.849
▁retrospect	-11.849
▁fierce	-11.8491
▁liturg	-11.8491
▁mask	-11.8491
▁vegetarian	-11.8491
▁Angl	-11.8491
▁crater	-11.8491
▁Worship	-11.8491
▁discredit	-11.8491
▁trench	-11.8491
▁competence	-11.8491
▁plaque	-11.8491
▁veneration	-11.8491
▁patrol	-11.8491
▁Arch	-11.8491
▁chaf	-11.8491
▁Substan	-11.8491
SO	-11.8491
▁envious	-11.8491
▁quoti	-11.8491
▁Dead	-11.8491
▁Pleasure	-11.8492
▁Plain	-11.8492
▁droop	-11.8492
▁crescent	-11.8492
▁imperative	-11.8492
▁banter	-11.8492
▁undermine	-11.8492
▁discount	-11.8492
rime	-11.8492
▁unexceptional	-11.8492
▁dash	-11.8492
▁Love	-11.8492
▁tilt	-11.8492
▁pillage	-11.8492
▁Rough	-11.8492
▁Pleasant	-11.8492
▁transsexual	-11.8492
▁chemi	-11.8492
▁epidemi	-11.8493
▁predator	-11.8493
▁Spain	-11.8493
▁obsequious	-11.8493
▁medal	-11.8493
▁laud	-11.8493
▁foster	-11.8493
▁oblivious	-11.8493
▁offshore	-11.8493
▁Insufficient	-11.8493
▁Play	-11.8493
▁taxi	-11.8493
▁gorgeous	-11.8494
▁ko	-11.8494
▁pitiable	-11.8494
▁reload	-11.8494
apor	-11.8494
▁sadden	-11.8494
▁suspicious	-11.8494
▁Ostentatious	-11.8494
▁polymer	-11.8494
▁horseback	-11.8494
▁loath	-11.8494
▁unrefined	-11.8494
▁gratify	-11.8495
▁buckle	-11.8496
▁recursive	-11.8496
▁grateful	-11.8496
▁chop	-11.8496
▁mosqu	-11.8496
▁Puer	-11.8496
▁kitten	-11.8496
▁garnish	-11.8496
gyp	-11.8497
utdoor	-11.8497
▁Predi	-11.8497
▁Identi	-11.8497
▁trustee	-11.8497
capsul	-11.8498
▁dizzy	-11.8498
▁tackle	-11.8498
▁Compan	-11.8498
▁illustration	-11.8499
▁jolt	-11.8499
1899	-11.8499
▁ranch	-11.8499
▁cabin	-11.8499
▁Shit	-11.8499
▁Cross	-11.8499
▁Nervo	-11.8499
terate	-11.8499
ostom	-11.85
▁Dear	-11.85
▁commemoration	-11.85
▁extortion	-11.85
▁overtake	-11.85
▁unaware	-11.8501
▁Saturn	-11.8501
▁suspension	-11.8501
▁vicious	-11.8502
acture	-11.8502
▁Satan	-11.8502
trine	-11.8502
▁beast	-11.8502
▁nonsensical	-11.8503
▁pave	-11.8503
▁Colo	-11.8503
▁partition	-11.8503
▁Frequently	-11.8504
▁erratic	-11.8504
▁resound	-11.8504
▁glide	-11.8505
▁Want	-11.8505
▁compromise	-11.8505
cumben	-11.8505
▁liveliness	-11.8505
▁inelegan	-11.8505
ubstance	-11.8506
▁err	-11.8506
▁interweav	-11.8506
cent	-11.8506
▁semitone	-11.8507
▁intima	-11.8507
▁simplic	-11.8508
inace	-11.8508
▁harbor	-11.8508
▁referent	-11.851
▁Palestin	-11.851
▁Lot	-11.851
charis	-11.851
pistol	-11.8511
ceasing	-11.8511
▁crease	-11.8511
▁regrow	-11.8512
▁specious	-11.8512
▁appro	-11.8513
▁dot	-11.8513
▁pretension	-11.8513
▁displace	-11.8513
▁innovati	-11.8514
▁Backward	-11.8514
▁chit	-11.8515
▁deduction	-11.8515
▁Dep	-11.8515
▁Tibet	-11.8515
▁drunken	-11.8516
▁pelt	-11.8516
ndhan	-11.8516
▁benz	-11.8517
▁unreliable	-11.8517
▁toilet	-11.8518
▁breech	-11.8518
▁curdle	-11.8518
▁lipid	-11.8519
▁Connection	-11.8519
▁nurture	-11.852
▁embe	-11.852
▁recei	-11.852
▁29	-11.8521
▁copulate	-11.8521
▁fortifi	-11.8522
▁thermo	-11.8523
▁Nov	-11.8523
oars	-11.8523
▁perforate	-11.8524
▁retract	-11.8524
▁escaping	-11.8525
▁dreadful	-11.8525
rithm	-11.8527
▁statute	-11.8527
▁excavation	-11.8528
semble	-11.853
▁hatch	-11.853
elid	-11.8531
▁Four	-11.8531
▁lesion	-11.8532
▁flare	-11.8532
▁Generat	-11.8534
▁ego	-11.8534
▁Inspir	-11.8534
ntern	-11.8535
▁experimentation	-11.8536
▁Conduc	-11.8536
▁chipp	-11.8536
▁Infest	-11.8537
▁balm	-11.8537
▁ignit	-11.8537
ntless	-11.8538
▁lane	-11.8538
▁wrestler	-11.8539
rsion	-11.8539
▁sensual	-11.854
tum	-11.854
▁nick	-11.8541
▁fluffy	-11.8541
▁canid	-11.8542
▁pleat	-11.8543
▁rotten	-11.8544
▁lapse	-11.8544
▁sloth	-11.8545
▁frankly	-11.8545
▁priva	-11.8546
▁Chaos	-11.8546
▁perturb	-11.8546
▁belittle	-11.8547
▁runway	-11.8547
▁cater	-11.8548
▁brace	-11.8548
rity	-11.8548
▁caf	-11.8548
▁traction	-11.8551
▁recess	-11.8551
▁retainer	-11.8551
amous	-11.8553
▁uniformity	-11.8554
▁Advoca	-11.8554
mination	-11.8554
▁Ger	-11.8557
BB	-11.8557
▁anonymous	-11.8558
▁potter	-11.856
▁efface	-11.8561
▁protector	-11.8561
▁silic	-11.8561
ivor	-11.8562
▁caffein	-11.8562
▁km	-11.8565
▁Word	-11.8566
▁neuron	-11.8566
iece	-11.8567
▁purported	-11.8567
▁stranger	-11.8567
▁unintelligibl	-11.8568
▁viable	-11.8569
▁Amazing	-11.857
▁lament	-11.8571
▁hermaphrodit	-11.8572
▁businesslike	-11.8574
▁aimless	-11.8574
amb	-11.8574
emic	-11.8575
▁Gam	-11.8575
▁prostrat	-11.8575
▁cage	-11.8576
▁rally	-11.8578
▁chol	-11.858
reckles	-11.858
▁Imitati	-11.8581
tern	-11.8584
▁Ga	-11.8588
caring	-11.8588
▁directive	-11.8591
duc	-11.8593
▁wrongful	-11.8594
▁brightness	-11.8594
▁Sho	-11.8596
swa	-11.8598
▁tolerate	-11.8598
▁Flow	-11.8599
▁Exemp	-11.86
nish	-11.8601
▁tertia	-11.8601
▁spann	-11.8606
▁clinic	-11.8608
▁audacity	-11.8608
▁flop	-11.8615
▁tou	-11.8615
▁marin	-11.8618
nut	-11.8623
▁antiqu	-11.8624
▁wisely	-11.8624
▁magnificen	-11.8627
▁cops	-11.8629
raffi	-11.8631
▁haz	-11.8631
▁confectioner	-11.8631
▁pacifi	-11.8634
▁unknowable	-11.8634
▁tenant	-11.8636
ccent	-11.8639
▁dive	-11.8639
giz	-11.864
almon	-11.8641
saw	-11.8641
▁Val	-11.8642
▁armor	-11.8644
▁quo	-11.8646
▁pea	-11.8646
stage	-11.8646
▁palm	-11.8648
▁hood	-11.8651
▁hue	-11.8655
▁fastener	-11.8662
uspicious	-11.8662
▁mapping	-11.8664
▁Adhe	-11.8667
▁cann	-11.8669
nymic	-11.8669
▁rele	-11.8671
grow	-11.8672
▁worsen	-11.8673
▁afterwards	-11.8673
esque	-11.8673
▁rag	-11.8675
▁quivering	-11.8677
▁tomb	-11.8678
▁mingl	-11.8679
ji	-11.8679
▁infield	-11.8681
▁inverse	-11.8686
▁Rigor	-11.8687
▁fatal	-11.8694
winded	-11.8697
▁mega	-11.8699
▁attentively	-11.8703
thor	-11.8707
▁sna	-11.8707
ress	-11.8711
▁whistl	-11.8712
arian	-11.8712
▁housekeep	-11.8712
▁garb	-11.8713
▁tinkl	-11.8713
▁insight	-11.8717
▁compute	-11.8717
▁spout	-11.8718
▁dissolve	-11.872
▁fashionable	-11.8722
ipin	-11.8728
▁deaden	-11.873
▁senseless	-11.8731
▁thirst	-11.8734
verish	-11.8735
regnan	-11.8736
▁cowardly	-11.8736
culture	-11.8737
br	-11.8738
▁hog	-11.8739
▁wr	-11.8746
▁Han	-11.8748
▁quoted	-11.875
ocum	-11.875
▁chill	-11.8753
▁ec	-11.8762
▁bait	-11.8763
▁rehears	-11.8768
oking	-11.8768
quest	-11.8774
▁assignment	-11.8778
▁sati	-11.8779
▁audibl	-11.878
pubes	-11.879
▁sta	-11.879
ueens	-11.8793
forming	-11.8796
▁congregat	-11.8797
chid	-11.8798
ray	-11.8801
▁node	-11.8805
ended	-11.8807
▁crypt	-11.8809
▁agil	-11.8809
▁Idl	-11.881
entle	-11.8811
▁Mari	-11.8812
▁Absen	-11.8813
▁stru	-11.8816
oviso	-11.8817
▁terminal	-11.8818
▁immobil	-11.8824
▁righteous	-11.8825
▁darken	-11.8826
▁finishe	-11.8827
reb	-11.8829
▁demean	-11.8833
▁developer	-11.8837
ik	-11.8838
▁spur	-11.8839
▁vanishing	-11.8841
all	-11.8847
▁deduce	-11.8851
▁rightful	-11.8852
▁saving	-11.8859
▁closer	-11.8863
▁county	-11.8864
constrained	-11.8866
▁gl	-11.8871
finish	-11.888
▁improvis	-11.888
lict	-11.888
▁plume	-11.8886
▁glob	-11.8886
▁banne	-11.889
▁forcibl	-11.889
cco	-11.8895
▁Ro	-11.8898
bout	-11.8902
▁Cic	-11.8905
▁lett	-11.8907
▁styli	-11.892
18	-11.8921
ae	-11.8927
▁liver	-11.8939
arnish	-11.8945
spin	-11.8949
▁companions	-11.8955
obust	-11.8955
▁gaze	-11.8955
lax	-11.8959
▁tint	-11.896
▁psychiatri	-11.8965
sparing	-11.8973
12	-11.8974
▁199	-11.8979
▁shower	-11.8984
▁pod	-11.8993
ication	-11.9009
oze	-11.9011
▁physics	-11.9017
▁repellen	-11.9018
▁Hol	-11.9028
gency	-11.9029
▁engrav	-11.9037
ehead	-11.9048
ff	-11.9048
reproof	-11.905
▁oxide	-11.9051
▁nationalis	-11.9056
▁lig	-11.9066
mit	-11.9069
flat	-11.9069
▁wi	-11.9071
▁condens	-11.9075
▁spices	-11.9075
▁transcenden	-11.9076
care	-11.908
he	-11.9084
▁shapes	-11.909
▁His	-11.9092
ommel	-11.9094
▁drawer	-11.9103
▁localiz	-11.9106
▁tickl	-11.9111
▁proportional	-11.9117
▁statue	-11.9118
stine	-11.9118
▁charming	-11.912
van	-11.9137
▁manipulated	-11.9146
▁Unrel	-11.9146
hill	-11.915
▁Inc	-11.9163
▁speaks	-11.9165
▁dice	-11.9166
rash	-11.9168
nation	-11.9169
▁mechanically	-11.9173
▁comed	-11.9177
▁reset	-11.918
▁Bio	-11.9183
rilla	-11.9189
▁festiv	-11.9191
▁mortgage	-11.92
▁exo	-11.9202
ists	-11.9205
gi	-11.9222
dlin	-11.9224
specific	-11.9224
▁lut	-11.9225
▁Care	-11.9228
▁relaxing	-11.9243
elude	-11.9252
ppearance	-11.9268
▁magnific	-11.9281
▁soon	-11.9282
owner	-11.9286
aver	-11.9289
▁pros	-11.9297
▁pounds	-11.931
▁addresse	-11.9311
▁11	-11.9318
trovert	-11.9319
▁AI	-11.9323
gh	-11.9333
▁copulat	-11.9333
itzer	-11.9335
▁fle	-11.9336
lish	-11.9341
▁fet	-11.9342
stile	-11.9343
oriented	-11.9346
▁sanit	-11.935
eli	-11.9353
▁interfer	-11.9353
cul	-11.9378
ander	-11.9382
▁arbitrat	-11.9386
▁subjugate	-11.9397
ept	-11.9403
closure	-11.9404
▁canon	-11.9405
tu	-11.941
▁evenly	-11.9415
sel	-11.9454
trained	-11.9458
▁improv	-11.946
mer	-11.9463
▁traveler	-11.9471
▁complicat	-11.9471
gar	-11.9474
ap	-11.9475
cosy	-11.9483
egative	-11.9494
oesophag	-11.9497
gression	-11.9499
▁fetish	-11.9504
▁Andr	-11.9511
▁journal	-11.9516
▁distressed	-11.9517
▁pursu	-11.9518
000	-11.9531
▁Na	-11.9532
aj	-11.9536
fusion	-11.9536
▁pate	-11.9537
▁mist	-11.9555
▁bake	-11.9575
▁espouse	-11.9576
▁gastr	-11.958
ific	-11.9586
inem	-11.9586
▁ret	-11.9591
bed	-11.9598
▁Anti	-11.9609
hen	-11.9609
▁ap	-11.961
ined	-11.9645
herry	-11.9651
▁Fl	-11.9653
tz	-11.9653
▁ka	-11.9656
space	-11.966
▁decreas	-11.9663
▁Rub	-11.9668
▁shutt	-11.9673
eak	-11.9676
ditional	-11.968
si	-11.9681
und	-11.9684
altering	-11.969
▁appar	-11.97
22	-11.9701
▁sandsto	-11.971
▁harbo	-11.9714
mma	-11.9715
▁Mon	-11.9716
▁vacati	-11.9723
▁patro	-11.9729
erant	-11.9729
▁Presen	-11.9744
lims	-11.9751
ventric	-11.9759
oving	-11.976
▁lob	-11.9767
log	-11.9771
▁conic	-11.9783
▁shap	-11.9785
▁Happ	-11.9797
▁calls	-11.9798
liance	-11.9805
plant	-11.9806
duel	-11.9809
▁skate	-11.9811
lural	-11.9821
vari	-11.9823
▁startl	-11.9829
▁epis	-11.9841
▁territori	-11.985
rine	-11.9852
▁descripti	-11.9855
▁spr	-11.9863
▁sequen	-11.9866
ket	-11.9868
▁phases	-11.9871
▁leas	-11.9873
▁landown	-11.9876
▁apath	-11.9883
wl	-11.9899
assail	-11.9899
▁decided	-11.9917
▁matched	-11.9917
▁hairs	-11.9923
▁marker	-11.9931
run	-11.9946
▁minerals	-11.9947
iscredit	-11.9951
▁orient	-11.9956
deed	-11.9966
illar	-11.9974
▁fable	-11.9986
▁melod	-12.0004
▁lustr	-12.0011
ft	-12.003
math	-12.0032
knowable	-12.0037
rea	-12.004
▁antibod	-12.0044
▁Gar	-12.0046
rows	-12.0052
apsis	-12.0061
tification	-12.0062
▁privileges	-12.0101
▁Sel	-12.0101
▁unco	-12.0107
due	-12.0111
nrich	-12.0113
▁precipitate	-12.0122
▁opi	-12.0127
▁fe	-12.014
▁cure	-12.0144
ficial	-12.0161
rky	-12.0176
▁farms	-12.0178
productiv	-12.0179
pkin	-12.0193
▁pretens	-12.0196
▁defer	-12.0198
▁Mag	-12.0213
▁bowls	-12.0213
ewd	-12.0237
▁tau	-12.0238
onic	-12.0239
hest	-12.0258
science	-12.0264
▁Mexic	-12.0265
ibility	-12.0272
▁circulate	-12.0276
eep	-12.0276
ric	-12.0278
▁screens	-12.0281
astic	-12.0303
▁Farthe	-12.0314
harm	-12.0315
▁maxim	-12.0317
▁prof	-12.0323
other	-12.0325
ich	-12.0338
fully	-12.0353
▁venture	-12.0364
late	-12.0369
▁aero	-12.0369
tors	-12.0382
▁frost	-12.0386
ura	-12.0392
ehaviour	-12.04
▁wh	-12.0415
▁mac	-12.0421
▁utili	-12.0429
gender	-12.043
▁mir	-12.0433
elic	-12.044
▁deform	-12.0442
▁lin	-12.0445
▁lamb	-12.0447
ani	-12.0451
▁Intention	-12.0458
brow	-12.0459
thic	-12.0461
▁Ur	-12.0465
range	-12.0473
orous	-12.0475
▁Dece	-12.0499
▁ac	-12.0501
▁presum	-12.0502
▁att	-12.0502
▁collapse	-12.0503
olite	-12.0503
rmed	-12.0511
▁joll	-12.0513
▁possesse	-12.052
▁bureaucra	-12.0522
▁Mid	-12.0522
▁Tas	-12.0525
ates	-12.0526
▁woo	-12.0527
till	-12.0527
▁exhale	-12.0528
▁predica	-12.0532
▁milli	-12.0533
▁tort	-12.0535
crib	-12.0537
▁substr	-12.0547
vo	-12.0556
▁balanc	-12.0557
▁lend	-12.0563
▁treasur	-12.0563
▁grappl	-12.0565
▁repli	-12.0567
▁Urgen	-12.0569
pra	-12.0576
ixture	-12.0583
▁tok	-12.0584
▁fla	-12.0586
▁bubbl	-12.0588
▁politic	-12.0591
ppy	-12.0594
▁marr	-12.0598
▁reuse	-12.0609
▁Spa	-12.0613
▁mutat	-12.0618
▁excu	-12.0628
▁anesthe	-12.0632
ically	-12.0636
▁phoneme	-12.0638
bject	-12.0641
▁bore	-12.0642
iary	-12.0642
▁boot	-12.0643
ris	-12.0645
▁inaudibl	-12.0648
▁sales	-12.0653
▁unfor	-12.0657
bundant	-12.0657
luster	-12.066
ctivities	-12.0661
cis	-12.0662
oge	-12.0663
cess	-12.0668
rix	-12.0668
Cas	-12.067
▁bypass	-12.0671
▁pelvi	-12.0671
liant	-12.0673
▁Will	-12.0679
▁bass	-12.0681
quality	-12.069
flow	-12.0691
▁archaea	-12.0693
▁qui	-12.0696
allowed	-12.07
▁practic	-12.0701
▁arriv	-12.0702
concept	-12.0704
gas	-12.0705
vi	-12.0712
▁sector	-12.0713
iv	-12.0713
anish	-12.0722
located	-12.0722
▁revolv	-12.0729
▁basi	-12.073
pus	-12.0732
▁architect	-12.0733
ike	-12.0742
▁Practic	-12.075
▁quiver	-12.0752
▁you	-12.0752
▁digit	-12.0754
bacco	-12.0755
uthority	-12.0757
genital	-12.0762
188	-12.0765
▁dispens	-12.0766
,	-12.0768
Asia	-12.077
fight	-12.0773
▁stab	-12.0773
assignment	-12.0773
▁Covering	-12.0773
▁compet	-12.0776
▁enem	-12.0776
metre	-12.0776
soluble	-12.078
processor	-12.0781
discreet	-12.0782
animate	-12.0785
transitive	-12.0786
confident	-12.0786
aqua	-12.0786
hesitating	-12.0787
exist	-12.0788
continent	-12.0788
G	-12.0788
solicit	-12.0788
allocate	-12.0788
▁tink	-12.0788
reason	-12.0788
esteem	-12.0788
claim	-12.0789
obedien	-12.0789
▁commun	-12.079
oxygen	-12.079
distribute	-12.079
balance	-12.0792
wave	-12.0793
though	-12.0793
invite	-12.0793
offensive	-12.0793
prepared	-12.0793
guard	-12.0793
extension	-12.0793
successful	-12.0794
disturb	-12.0794
help	-12.0794
wait	-12.0794
aircraft	-12.0794
characteristic	-12.0794
great	-12.0794
record	-12.0795
social	-12.0795
control	-12.0795
shake	-12.0796
gut	-12.0797
twin	-12.0798
leave	-12.0799
year	-12.0799
importance	-12.0799
▁elev	-12.08
colation	-12.0801
cirr	-12.0801
amus	-12.0804
panic	-12.0806
sati	-12.0806
miss	-12.0807
flux	-12.0807
stick	-12.0814
▁estimat	-12.0815
allus	-12.0815
▁ingenu	-12.0816
▁barre	-12.0817
fault	-12.082
▁export	-12.0826
indulgen	-12.0826
chord	-12.0828
tender	-12.0829
joy	-12.0831
tention	-12.0831
▁humiliate	-12.0832
cles	-12.0833
▁gi	-12.0834
cted	-12.0835
▁prede	-12.0836
▁indic	-12.0838
▁Har	-12.0841
rule	-12.0841
eman	-12.0842
tropic	-12.0846
staff	-12.0847
ci	-12.0849
mplify	-12.0849
▁amen	-12.085
▁pad	-12.0851
solent	-12.0852
▁crook	-12.0852
pick	-12.0852
terminate	-12.0852
▁bless	-12.0853
upper	-12.0854
lining	-12.0855
glad	-12.0855
pet	-12.0855
ague	-12.0857
dividual	-12.0859
▁imag	-12.0861
descent	-12.0862
▁breez	-12.0864
vocat	-12.0864
ourse	-12.0868
▁augu	-12.087
dium	-12.0871
topping	-12.0872
start	-12.0874
▁Prof	-12.0874
▁lion	-12.0875
▁brow	-12.0891
nc	-12.0893
omer	-12.0894
▁Rea	-12.09
▁seam	-12.091
▁jut	-12.0912
▁magnet	-12.092
▁concentr	-12.0924
▁sympath	-12.0925
▁fluff	-12.0925
▁repel	-12.0926
▁provinc	-12.0926
▁frequenc	-12.0927
▁nig	-12.0927
idol	-12.0927
▁fanc	-12.0931
▁mol	-12.0933
fel	-12.0933
▁End	-12.0933
▁tram	-12.0935
▁authors	-12.0935
▁Heat	-12.0935
▁pleasur	-12.0937
▁justifiabl	-12.0939
etermined	-12.0942
taking	-12.0945
▁irritate	-12.0945
▁Bibl	-12.0946
tow	-12.0947
▁amplifi	-12.0948
pounds	-12.095
▁coup	-12.095
▁brid	-12.0951
mat	-12.0951
▁hug	-12.0951
▁sensationalis	-12.0951
▁custo	-12.0953
▁Sex	-12.0954
▁ruff	-12.0956
▁Who	-12.0956
vincing	-12.0956
zzle	-12.0956
▁sac	-12.0957
▁Cho	-12.0958
umen	-12.0963
▁countr	-12.0963
▁profess	-12.0963
▁Except	-12.0965
▁Flo	-12.0967
▁Fals	-12.0967
▁Satisf	-12.0968
▁erupt	-12.0969
▁hits	-12.0971
▁mau	-12.0971
▁criticis	-12.0973
▁vehemen	-12.0973
▁intuiti	-12.0974
▁commemorati	-12.0974
▁Conve	-12.0975
▁precipi	-12.0976
▁suff	-12.0976
▁pruden	-12.0977
▁bino	-12.0977
▁prominen	-12.0977
▁mapp	-12.0978
▁deploy	-12.0978
decorous	-12.0979
▁impo	-12.0979
▁Excess	-12.0979
▁snug	-12.098
nown	-12.0981
▁homogen	-12.0982
▁linguist	-12.0983
▁Ostentatio	-12.0983
▁oblivio	-12.0983
▁vertebra	-12.0983
▁crow	-12.0983
▁automatic	-12.0983
▁zeal	-12.0984
catter	-12.0984
antastic	-12.0985
ommercial	-12.0985
cursive	-12.0985
▁alb	-12.0985
emperamental	-12.0985
▁volcan	-12.0986
▁gamb	-12.0986
uisine	-12.0986
▁sci	-12.0987
licitous	-12.0987
rgon	-12.0987
▁inadequa	-12.0987
ligate	-12.0987
agne	-12.0987
▁helm	-12.0987
▁unru	-12.0987
▁machi	-12.0987
eginning	-12.0987
enia	-12.0988
eutral	-12.0988
▁liveli	-12.0988
oyant	-12.0988
▁depredat	-12.0988
▁unsupport	-12.0988
absorpti	-12.0988
tegosaur	-12.0988
▁Abrupt	-12.0988
▁Correct	-12.0988
▁Correspond	-12.0988
▁Ctenomy	-12.0988
▁Equivalent	-12.0988
▁Multipl	-12.0988
▁Norwegian	-12.0988
▁Obstinate	-12.0988
▁Private	-12.0988
▁Psittaci	-12.0988
▁Recogni	-12.0988
▁Responsib	-12.0988
▁Stubborn	-12.0988
▁Symbol	-12.0988
▁archbishop	-12.0988
▁aurora	-12.0988
▁billiard	-12.0988
▁concomitant	-12.0988
▁confound	-12.0988
▁congested	-12.0988
▁crystallize	-12.0988
▁diplomacy	-12.0988
▁divorce	-12.0988
▁energi	-12.0988
▁eschew	-12.0988
▁extenuati	-12.0988
▁fellatio	-12.0988
▁fossil	-12.0988
▁genealog	-12.0988
▁hallucinations	-12.0988
▁hybrid	-12.0988
▁immovabl	-12.0988
▁innuendo	-12.0988
▁irresponsibl	-12.0988
▁isotope	-12.0988
▁occult	-12.0988
▁opportunistic	-12.0988
▁parachut	-12.0988
▁pharmaceutical	-12.0988
▁plagiariz	-12.0988
▁procedural	-12.0988
▁remonstrat	-12.0988
▁spectacular	-12.0988
▁stubborn	-12.0988
▁symbio	-12.0988
▁tabloid	-12.0988
▁tacit	-12.0988
▁taxicab	-12.0988
▁terrifying	-12.0988
▁trespass	-12.0988
▁unceremonious	-12.0988
▁unresponsive	-12.0988
▁urchin	-12.0988
▁warrior	-12.0988
▁worksheet	-12.0988
aviomorph	-12.0988
▁Corrupt	-12.0988
▁Popular	-12.0988
▁Supplementa	-12.0988
▁Waste	-12.0988
▁diatonic	-12.0988
▁glyph	-12.0988
▁perpetual	-12.0988
▁toffee	-12.0988
▁videotape	-12.0988
▁Coarse	-12.0988
▁casino	-12.0988
▁decipher	-12.0988
▁deficit	-12.0988
▁demarcat	-12.0988
▁execra	-12.0988
▁illegi	-12.0988
▁intravenous	-12.0988
▁nonessential	-12.0988
▁proverb	-12.0988
▁unselfish	-12.0988
▁vacillat	-12.0988
▁bristle	-12.0989
▁incantation	-12.0989
▁rabbi	-12.0989
eparable	-12.0989
▁Frightful	-12.0989
▁amaze	-12.0989
▁authoritarian	-12.0989
▁russet	-12.0989
▁Suprem	-12.0989
▁acrobat	-12.0989
▁encrypt	-12.0989
▁unstopp	-12.0989
ragm	-12.0989
▁Imbu	-12.0989
▁Phil	-12.0989
▁cricket	-12.0989
ISP	-12.0989
▁grandmother	-12.0989
▁meager	-12.0989
▁merci	-12.0989
ochon	-12.0989
▁floret	-12.0989
▁nib	-12.0989
▁transcript	-12.0989
▁trunk	-12.0989
▁hyphen	-12.0989
ilateral	-12.0989
▁External	-12.0989
▁metropoli	-12.0989
▁vogue	-12.0989
▁merri	-12.0989
▁volley	-12.0989
▁demonstrab	-12.0989
ellebor	-12.0989
▁Suspect	-12.0989
▁syndic	-12.0989
▁falcon	-12.0989
▁glitch	-12.0989
▁archaic	-12.0989
▁quilt	-12.0989
▁benefice	-12.0989
▁epiphany	-12.0989
eutic	-12.0989
▁plague	-12.0989
ivil	-12.0989
▁damp	-12.0989
▁mutilat	-12.0989
▁Current	-12.0989
▁necklace	-12.0989
▁rapport	-12.0989
▁Apparent	-12.0989
▁shotgun	-12.0989
▁racehorse	-12.0989
▁handcuff	-12.0989
▁prestigious	-12.0989
▁protozoa	-12.0989
▁scape	-12.0989
▁Arrange	-12.0989
▁endorsing	-12.0989
▁incredibl	-12.0989
▁lank	-12.0989
insulin	-12.0989
▁protrusion	-12.0989
lapida	-12.0989
▁Remarkabl	-12.0989
utual	-12.0989
▁empha	-12.0989
▁Count	-12.0989
▁marvel	-12.0989
▁sniff	-12.0989
▁smash	-12.0989
▁teleport	-12.0989
▁corrido	-12.0989
▁envision	-12.0989
▁gentile	-12.0989
▁Gradua	-12.0989
▁neuter	-12.0989
▁fireworks	-12.0989
▁clasp	-12.0989
▁daunt	-12.0989
▁hamper	-12.0989
▁mumble	-12.0989
▁dagger	-12.0989
▁jocular	-12.0989
▁reorganization	-12.0989
▁Excit	-12.0989
▁remind	-12.0989
▁wicker	-12.0989
▁polarize	-12.0989
▁gill	-12.0989
▁Half	-12.0989
▁astound	-12.0989
▁blob	-12.099
▁crawl	-12.099
▁clover	-12.099
▁fickle	-12.099
▁Copy	-12.099
▁corset	-12.099
▁Object	-12.099
▁Respect	-12.099
▁derail	-12.099
▁definitive	-12.099
▁anthropolog	-12.099
▁tentative	-12.099
▁Empty	-12.099
▁Address	-12.099
▁almond	-12.099
opia	-12.099
▁debit	-12.099
▁operand	-12.099
▁chopped	-12.099
▁labyrinthine	-12.099
▁wildfire	-12.099
▁gaunt	-12.099
▁vivacious	-12.099
▁gidd	-12.099
▁germ	-12.099
▁beryl	-12.099
ovulation	-12.099
▁unemploy	-12.099
▁dissociation	-12.099
▁foretell	-12.099
▁Organi	-12.099
▁Domin	-12.099
▁songbird	-12.099
dfather	-12.099
▁humming	-12.0991
▁treacherous	-12.0991
▁roam	-12.0991
▁quell	-12.0991
▁entail	-12.0991
▁exuberant	-12.0991
▁diabetes	-12.0991
▁psychotherap	-12.0991
▁hadron	-12.0991
▁pugna	-12.0991
▁Famil	-12.0991
▁Idiot	-12.0991
▁disquiet	-12.0991
▁ovule	-12.0991
▁datum	-12.0991
▁counteract	-12.0991
▁octave	-12.0991
▁seductive	-12.0991
▁Brahm	-12.0991
▁Home	-12.0991
ungar	-12.0991
▁meek	-12.0991
▁serf	-12.0991
▁flatfish	-12.0991
▁Samo	-12.0992
▁tallow	-12.0992
▁Smug	-12.0992
▁Scandinavian	-12.0992
▁meme	-12.0992
atus	-12.0992
▁headache	-12.0992
▁Narrow	-12.0992
▁subconscious	-12.0992
▁concise	-12.0992
▁Avesta	-12.0993
▁Attractive	-12.0993
▁Desir	-12.0993
affiliat	-12.0993
▁compulsive	-12.0993
alism	-12.0993
▁Master	-12.0993
▁prank	-12.0993
▁Canton	-12.0993
acryl	-12.0993
▁purplish	-12.0993
▁savage	-12.0994
▁Numer	-12.0994
▁olive	-12.0994
▁sinew	-12.0994
▁outrage	-12.0994
▁trope	-12.0994
▁Moist	-12.0994
▁Eph	-12.0994
▁shave	-12.0994
▁calib	-12.0994
▁spectr	-12.0994
▁weekend	-12.0994
▁Marxism	-12.0994
▁redirect	-12.0994
▁Invent	-12.0994
▁garage	-12.0994
▁cleave	-12.0994
▁hesitancy	-12.0995
▁derisi	-12.0995
▁troll	-12.0995
▁Prob	-12.0995
▁Salv	-12.0995
▁Nepal	-12.0995
scrim	-12.0995
▁smit	-12.0995
niversa	-12.0996
▁scab	-12.0996
▁tribune	-12.0996
▁mache	-12.0996
▁axon	-12.0996
ille	-12.0996
▁Salmon	-12.0997
▁metals	-12.0997
▁fanwork	-12.0997
▁cognat	-12.0997
▁epic	-12.0997
▁gig	-12.0997
eatur	-12.0998
▁patronage	-12.0998
▁grassland	-12.0998
▁lowlife	-12.0998
▁barbaric	-12.0998
▁cancer	-12.0999
▁divest	-12.0999
▁unnotice	-12.0999
megaton	-12.0999
▁caliph	-12.0999
▁trigonometry	-12.0999
▁throne	-12.1
▁geophysic	-12.1
▁clank	-12.1
▁reflexive	-12.1
overty	-12.1
▁Trac	-12.1
▁oversize	-12.1
▁gamble	-12.1001
▁Ball	-12.1001
▁centimet	-12.1001
▁rumor	-12.1001
▁overrun	-12.1002
▁Disc	-12.1002
▁flock	-12.1002
▁minist	-12.1002
▁viewpoint	-12.1002
▁medio	-12.1002
▁outgrow	-12.1002
▁Polish	-12.1003
▁bog	-12.1003
▁defendant	-12.1003
▁preservation	-12.1004
▁bre	-12.1004
▁distortion	-12.1004
rofessional	-12.1005
▁sleepiness	-12.1005
▁defam	-12.1005
▁interconnected	-12.1006
▁Alp	-12.1007
▁Hind	-12.1007
▁Specializ	-12.1007
mong	-12.1008
▁dining	-12.1008
ssors	-12.1008
▁contingen	-12.1008
zzy	-12.1008
▁hut	-12.1009
▁unanim	-12.1009
▁fop	-12.1009
vena	-12.101
▁chart	-12.101
▁tyran	-12.101
▁taint	-12.101
ssenger	-12.1011
▁actuat	-12.1011
▁pawn	-12.1012
▁album	-12.1012
toman	-12.1013
▁preparatory	-12.1013
▁generator	-12.1014
▁sincere	-12.1014
▁Mind	-12.1014
▁ponderous	-12.1014
▁prism	-12.1015
▁adposition	-12.1015
▁insistent	-12.1016
▁swerve	-12.1016
▁obsessive	-12.1016
▁tenet	-12.1017
▁Skillful	-12.1017
▁beget	-12.1018
▁pebbl	-12.1018
neph	-12.1018
▁whine	-12.1018
▁deputy	-12.1018
▁autocra	-12.1019
▁Plann	-12.1019
▁Spiritual	-12.1019
quoia	-12.1019
▁downstream	-12.1019
ergot	-12.102
▁empire	-12.1021
▁accommodation	-12.1022
unus	-12.1022
▁cuff	-12.1022
▁Present	-12.1023
▁wiggl	-12.1023
uite	-12.1024
▁Tough	-12.1024
▁diagonal	-12.1024
▁pixel	-12.1024
▁flank	-12.1024
▁Trash	-12.1024
▁rocket	-12.1025
▁cube	-12.1025
▁gird	-12.1025
▁terrace	-12.1025
▁Just	-12.1025
▁allot	-12.1025
tador	-12.1026
▁dad	-12.1026
▁tempting	-12.1027
▁uninteresting	-12.1027
▁quadr	-12.1028
▁warlike	-12.1028
meal	-12.103
▁impla	-12.103
▁Base	-12.1031
explic	-12.1031
▁renewable	-12.1031
▁rehea	-12.1032
▁precede	-12.1032
otation	-12.1033
▁sunk	-12.1034
▁speckle	-12.1034
▁blockage	-12.1036
▁Mess	-12.1036
▁21	-12.1036
▁quite	-12.1036
▁filth	-12.1038
iance	-12.1039
▁pud	-12.104
ub	-12.1041
▁pulsat	-12.1042
▁Tell	-12.1042
uk	-12.1043
▁skew	-12.1044
▁gro	-12.1044
▁faun	-12.1046
▁griev	-12.1047
▁enthusiast	-12.1047
▁truthful	-12.1047
▁jar	-12.1047
hab	-12.1048
dept	-12.1048
▁roost	-12.1049
▁Constituti	-12.1051
▁politici	-12.1052
▁influen	-12.1053
▁organis	-12.1053
▁plead	-12.1054
▁moisten	-12.1055
▁ineffectual	-12.1056
▁80	-12.1056
▁depriv	-12.1057
▁ruffle	-12.1058
▁interpreter	-12.106
▁spa	-12.106
▁duct	-12.1062
▁Impress	-12.1064
▁acquaintance	-12.1064
▁Cob	-12.1065
▁seren	-12.1067
tace	-12.1068
ase	-12.107
▁hinge	-12.107
▁forget	-12.1072
mitt	-12.1073
hank	-12.1075
▁Resist	-12.1076
yria	-12.1078
▁firefight	-12.1079
aliae	-12.1079
▁crucif	-12.1081
▁recreate	-12.1082
▁flute	-12.1083
amara	-12.1084
▁skelet	-12.1086
▁shackle	-12.1086
▁homeless	-12.1088
▁trout	-12.1088
▁stack	-12.1089
▁ledge	-12.1089
▁Slobb	-12.109
▁gloss	-12.109
▁coiled	-12.1091
▁braided	-12.1092
rench	-12.1094
▁Salt	-12.1095
▁insubstantial	-12.1098
▁Prominen	-12.1099
▁plow	-12.11
▁alco	-12.1101
erine	-12.1102
▁mitr	-12.1104
▁accompanies	-12.1104
eologis	-12.1107
▁Earne	-12.1111
▁Wave	-12.1112
▁thoughtless	-12.1112
user	-12.1113
pi	-12.1113
▁gust	-12.1114
methyl	-12.1116
ealth	-12.1116
▁archiv	-12.1119
▁ampl	-12.1121
▁pedi	-12.1122
▁ponds	-12.1122
▁Interacti	-12.1123
imp	-12.1124
▁penitent	-12.1125
unge	-12.1129
▁Force	-12.1129
▁conferr	-12.113
▁aggressi	-12.113
▁gram	-12.1131
-20	-12.1132
▁seasonally	-12.1134
▁sturd	-12.1135
▁grab	-12.1135
pot	-12.1136
▁eminen	-12.1137
ortion	-12.1138
▁cringe	-12.114
▁fol	-12.1143
▁palp	-12.1144
worn	-12.1144
▁burg	-12.1145
▁loin	-12.1145
zero	-12.1145
▁trac	-12.1145
▁assassin	-12.1148
▁phar	-12.1148
▁Sanit	-12.115
▁shortage	-12.115
▁disability	-12.1151
▁metaboli	-12.1153
▁Point	-12.1154
▁Reduc	-12.1154
▁west	-12.1155
mania	-12.1156
▁unready	-12.1158
oulder	-12.116
pointed	-12.1161
iffin	-12.1164
▁steppe	-12.1166
▁clit	-12.117
hay	-12.1171
▁farmer	-12.1173
▁proven	-12.1175
▁Rus	-12.1175
hing	-12.1177
storm	-12.1181
diary	-12.1183
▁porter	-12.1183
▁predictable	-12.1186
▁pert	-12.1189
▁padded	-12.1189
▁Restrain	-12.119
▁mite	-12.119
ants	-12.1193
▁gel	-12.12
lop	-12.1201
▁admirer	-12.1201
▁mitigate	-12.1207
oir	-12.1209
▁derivatives	-12.1211
▁communal	-12.1211
▁cobwebs	-12.1211
▁Medic	-12.1213
▁Equip	-12.1215
▁subscript	-12.122
▁tripp	-12.122
▁lax	-12.1221
▁rectifie	-12.1222
▁simulat	-12.1222
egetarian	-12.1222
▁lect	-12.1224
deal	-12.1225
▁Electrical	-12.1229
▁demoli	-12.123
▁mesh	-12.1231
▁compil	-12.1232
astidious	-12.1233
▁blessing	-12.1234
▁networking	-12.1242
▁disputed	-12.1243
▁Broo	-12.1245
tula	-12.1245
lery	-12.1245
▁mistaken	-12.1246
▁peli	-12.1249
▁tendon	-12.1251
▁grum	-12.1254
visor	-12.1254
▁quit	-12.1255
▁squandered	-12.1259
▁Engag	-12.1263
▁braz	-12.1265
▁weakened	-12.1265
▁allegi	-12.1267
▁incoherent	-12.1268
▁Toleran	-12.1271
▁lawful	-12.1273
▁Obligat	-12.1276
llegal	-12.1278
▁stipulate	-12.1285
▁suggests	-12.1285
▁Bran	-12.1287
borate	-12.1289
▁squa	-12.1291
▁brewe	-12.1291
▁chal	-12.1292
percepti	-12.1292
▁Sev	-12.1292
thirst	-12.1298
▁repress	-12.1299
▁periodic	-12.1301
▁Spin	-12.1314
▁bounce	-12.1317
▁civiliz	-12.1322
ig	-12.1323
pack	-12.1324
▁turbi	-12.1327
▁aura	-12.1327
patriot	-12.133
▁lance	-12.1334
but	-12.1337
▁phall	-12.1338
hronological	-12.1348
▁dial	-12.1349
ick	-12.135
▁boots	-12.1352
aneously	-12.1361
▁tier	-12.1363
▁stifl	-12.1364
▁browse	-12.1365
lass	-12.1366
rium	-12.1366
▁arrived	-12.1367
pid	-12.1375
▁retriev	-12.138
▁Writing	-12.1382
rang	-12.1384
▁princes	-12.1394
▁pickl	-12.1394
sgender	-12.1397
▁ideologi	-12.1403
▁roar	-12.1405
▁transit	-12.141
gle	-12.1412
omb	-12.1417
▁rigg	-12.1421
anqui	-12.1428
▁preside	-12.1438
▁Onc	-12.1439
retch	-12.1439
▁rustl	-12.1439
▁discolour	-12.1441
▁amid	-12.1443
▁unfavo	-12.1448
▁prevailing	-12.1456
▁cring	-12.1459
alk	-12.1474
wab	-12.1477
▁wan	-12.1477
▁prevalen	-12.1481
▁squi	-12.1483
teep	-12.1484
heap	-12.1485
▁barbari	-12.1497
span	-12.1516
dge	-12.1527
▁psychology	-12.1528
RA	-12.1533
▁fog	-12.1534
▁raz	-12.1537
▁usur	-12.1537
▁vers	-12.1545
▁carnivore	-12.1548
▁abl	-12.155
▁effluen	-12.155
▁ign	-12.1551
▁intrac	-12.1551
▁freez	-12.1552
Station	-12.1555
▁wasted	-12.1556
▁temperamental	-12.1558
lambd	-12.1562
▁Cha	-12.1562
CR	-12.1566
icated	-12.157
▁modell	-12.1573
▁Intentional	-12.1576
▁placate	-12.1576
tem	-12.1579
▁grapes	-12.1581
▁22	-12.1584
bsolutely	-12.16
nous	-12.16
▁curr	-12.1606
▁ide	-12.1627
tune	-12.1636
▁jol	-12.1637
▁abid	-12.164
▁punished	-12.1641
▁haphazardly	-12.1644
vibrate	-12.1653
j	-12.1656
▁ventur	-12.1657
alacious	-12.1658
▁herba	-12.1661
▁miles	-12.1662
▁withhold	-12.1666
▁flaps	-12.1671
▁updat	-12.1685
▁notif	-12.1687
chy	-12.1691
▁flin	-12.1696
lia	-12.1697
▁profus	-12.1712
nage	-12.1723
▁facet	-12.1726
▁ep	-12.173
▁summariz	-12.173
ilitar	-12.1733
▁gratifi	-12.1733
rescent	-12.1739
▁reversibl	-12.1753
infall	-12.1755
bb	-12.176
▁lumps	-12.1763
frai	-12.1766
ld	-12.1767
▁softer	-12.1775
▁symboliz	-12.1778
haw	-12.178
▁wise	-12.1782
andom	-12.1785
awn	-12.1791
▁gest	-12.1791
▁uncoo	-12.1793
cel	-12.1798
▁propagat	-12.1801
▁inhibits	-12.1801
mine	-12.1814
▁Dem	-12.1817
ppreciative	-12.182
▁faction	-12.1833
brat	-12.1845
nical	-12.1851
▁mysteri	-12.1855
▁aft	-12.1855
▁forehand	-12.1867
▁Pal	-12.1879
eft	-12.1883
▁langu	-12.1886
▁pat	-12.1898
▁bac	-12.1905
mprovident	-12.1906
psi	-12.191
▁disqualif	-12.1911
axes	-12.1912
▁188	-12.1913
Roy	-12.1922
▁brack	-12.1942
▁Bal	-12.1945
▁regrett	-12.1948
gain	-12.1953
200	-12.1957
▁oxid	-12.197
▁sociolog	-12.1973
▁genes	-12.1978
▁mole	-12.1988
urious	-12.1996
▁telescop	-12.1997
▁swi	-12.1999
▁tribut	-12.2005
▁basili	-12.2016
▁indulg	-12.2019
▁precipit	-12.2023
▁flou	-12.203
▁eru	-12.204
▁Terri	-12.2041
▁cleans	-12.2049
bic	-12.205
▁lowered	-12.2053
scribe	-12.2055
▁unde	-12.2059
iform	-12.2068
sham	-12.207
▁200	-12.2108
enic	-12.2109
▁partners	-12.2112
rians	-12.2117
phy	-12.2128
▁Cit	-12.2132
▁zones	-12.2147
▁endearing	-12.2149
▁Represent	-12.2156
▁melodi	-12.2165
▁infring	-12.2166
og	-12.2167
ribb	-12.2171
▁denti	-12.2175
aque	-12.2175
▁Dri	-12.2179
conic	-12.218
▁lev	-12.2195
aro	-12.2202
reduc	-12.2216
logo	-12.2219
nese	-12.2226
▁Clu	-12.2226
▁stag	-12.223
▁Terribl	-12.2231
tribution	-12.2236
emast	-12.2247
orbidd	-12.2254
lles	-12.2273
▁aristocra	-12.2277
▁courte	-12.2288
res	-12.2311
▁lam	-12.2311
▁truc	-12.2324
▁provok	-12.2328
▁hormones	-12.2347
▁infus	-12.2377
reasonable	-12.2381
▁spokes	-12.2383
earing	-12.2395
dent	-12.2395
▁recognise	-12.2402
▁Damage	-12.2411
▁cathe	-12.2417
▁categorize	-12.2418
rude	-12.242
▁bla	-12.2426
▁parse	-12.243
▁Foot	-12.2434
▁schedul	-12.2435
▁boo	-12.2444
▁permeate	-12.2447
▁clar	-12.2453
▁elevate	-12.2461
cket	-12.2464
▁crumbl	-12.2466
▁scare	-12.2469
eading	-12.2472
▁browning	-12.2476
▁softly	-12.2494
▁fork	-12.2496
ruse	-12.25
▁climbed	-12.2511
▁menu	-12.2515
oluminous	-12.2517
outhern	-12.2523
▁decor	-12.2538
▁adversar	-12.2553
efined	-12.2554
▁activis	-12.256
▁Unre	-12.2561
▁persuad	-12.2567
preter	-12.2574
cule	-12.2577
ert	-12.2577
▁min	-12.2578
stance	-12.2578
oon	-12.2585
▁Me	-12.259
earth	-12.259
▁bust	-12.2593
▁Glo	-12.2603
▁birder	-12.2606
ographic	-12.2606
▁infan	-12.261
▁Ag	-12.2612
sman	-12.2617
amorph	-12.2618
agged	-12.2618
ootball	-12.2625
▁wis	-12.2627
lks	-12.263
ife	-12.263
▁Damag	-12.2632
▁paths	-12.2634
▁radiu	-12.2652
▁critically	-12.2661
▁crypti	-12.2666
ho	-12.2668
▁Preceden	-12.2673
mount	-12.2678
emper	-12.2684
▁radiat	-12.2688
urg	-12.2689
▁vi	-12.2692
▁Exp	-12.2704
▁hilari	-12.2717
▁authorize	-12.272
lt	-12.2721
▁Parad	-12.2727
syl	-12.2737
▁superintenden	-12.2737
▁asph	-12.2748
tzer	-12.275
SM	-12.2773
▁repulse	-12.2796
▁boarding	-12.2821
uit	-12.2825
tactical	-12.2838
▁pha	-12.2846
▁bowling	-12.2848
▁disorient	-12.2848
▁Psych	-12.2856
deserved	-12.2866
ene	-12.287
ins	-12.2873
▁froth	-12.2879
▁horri	-12.2882
camper	-12.2888
▁Live	-12.2892
chase	-12.2894
▁Dru	-12.2898
▁Stam	-12.2903
assembl	-12.2904
ekeeper	-12.2923
▁controversi	-12.2923
▁Gras	-12.293
repe	-12.2965
bia	-12.2973
port	-12.2981
bear	-12.2982
▁harp	-12.2984
▁categoriz	-12.299
▁rumina	-12.2997
ail	-12.3005
▁sod	-12.3008
▁needy	-12.3013
▁rebel	-12.3014
▁heli	-12.3026
nds	-12.3028
▁molecul	-12.3047
mus	-12.3054
▁che	-12.3057
▁consumerist	-12.3064
aking	-12.3066
▁ero	-12.3079
▁rebelli	-12.3081
▁classif	-12.3081
▁practise	-12.3082
▁Achieve	-12.3083
marita	-12.3089
▁defeated	-12.3095
chet	-12.3108
ribbe	-12.3113
▁pastor	-12.3118
▁Clothe	-12.3127
▁Ja	-12.313
▁checks	-12.315
stop	-12.3151
wn	-12.3153
▁Bi	-12.316
▁mortgag	-12.3164
centered	-12.3174
▁beg	-12.318
chedul	-12.3181
ques	-12.3183
▁kil	-12.3189
▁accelerate	-12.3196
▁evolve	-12.3203
▁erase	-12.3224
▁disbur	-12.3225
▁Mod	-12.3226
▁Terr	-12.323
▁conserv	-12.3231
bo	-12.3235
psis	-12.3239
▁negotiate	-12.3239
ands	-12.3243
fa	-12.3252
▁dy	-12.3253
▁Suc	-12.3268
bble	-12.3283
isk	-12.3288
▁Dat	-12.329
me	-12.3294
assu	-12.3298
▁inf	-12.3304
▁Head	-12.3319
▁hydr	-12.3324
thi	-12.3325
▁closet	-12.3347
▁diagramm	-12.3349
bl	-12.3352
▁mutate	-12.3353
conn	-12.3361
lary	-12.3362
▁mutt	-12.3363
bage	-12.3406
smen	-12.3406
▁ornaments	-12.3409
sum	-12.3413
titious	-12.3419
▁overwr	-12.342
suit	-12.342
▁Ve	-12.3424
lature	-12.3426
ides	-12.343
▁baffle	-12.3438
cake	-12.3439
▁quart	-12.3445
▁Mee	-12.3446
▁Inf	-12.3446
mediate	-12.3486
▁Defec	-12.3493
▁iterat	-12.3497
▁heave	-12.3498
▁Vo	-12.35
▁authorise	-12.3511
▁dip	-12.3512
ccess	-12.3527
▁Ever	-12.353
ica	-12.3534
lls	-12.3556
rname	-12.3559
mperfect	-12.3565
tible	-12.3572
mper	-12.3585
rehensive	-12.3591
ribal	-12.3591
ellate	-12.3594
▁Secur	-12.3606
▁humili	-12.3606
▁lac	-12.3614
▁reus	-12.362
▁rou	-12.3621
▁inflame	-12.364
title	-12.3644
hei	-12.3647
▁coagulat	-12.3651
iversity	-12.3653
mad	-12.3655
writ	-12.3662
flamma	-12.3664
tant	-12.3665
lid	-12.3669
spoke	-12.3669
rel	-12.3675
▁Dra	-12.3679
cological	-12.3691
venge	-12.3697
▁airpla	-12.3699
argo	-12.3699
▁Cis	-12.3701
ogyn	-12.3702
▁wag	-12.3712
fective	-12.3714
arc	-12.3715
nished	-12.3722
▁idealis	-12.3731
▁Gre	-12.3738
▁propagate	-12.374
▁ru	-12.3741
arned	-12.3759
dlock	-12.3761
roadworth	-12.377
iously	-12.3773
as	-12.3775
arded	-12.3778
storey	-12.3779
▁disordered	-12.3782
▁Rul	-12.3784
inful	-12.3784
tructure	-12.3786
▁lib	-12.3792
print	-12.3792
▁uncle	-12.3799
▁dic	-12.3805
▁190	-12.3816
mage	-12.3817
spect	-12.3822
ountain	-12.3828
▁encircl	-12.3832
▁seduc	-12.3833
▁geometr	-12.3833
▁ambi	-12.3842
▁migrate	-12.3852
▁retin	-12.3854
▁infinit	-12.3854
tyr	-12.3856
think	-12.3856
▁Improvi	-12.3864
ension	-12.3871
▁mine	-12.3873
tense	-12.3874
cce	-12.3876
action	-12.3888
chio	-12.3894
tures	-12.3895
▁cleanse	-12.3897
▁Gener	-12.3899
ext	-12.3899
▁Fan	-12.3911
▁tent	-12.3918
▁adduc	-12.3919
bber	-12.3919
▁conceive	-12.3927
▁disperse	-12.3927
▁persisten	-12.393
latter	-12.394
peas	-12.3947
▁champion	-12.3948
▁outd	-12.395
▁chari	-12.3951
▁overhea	-12.3956
technic	-12.3961
called	-12.3966
substantial	-12.3969
▁Sc	-12.3971
attentive	-12.3975
ristocrat	-12.3977
▁pub	-12.398
▁overstate	-12.3983
▁equi	-12.3991
vision	-12.3995
▁Tur	-12.3995
greement	-12.3998
glass	-12.4
▁immigrant	-12.4006
▁pap	-12.4006
list	-12.4014
▁submarine	-12.4019
▁mater	-12.4019
▁cobweb	-12.402
▁pul	-12.4024
urning	-12.4026
hom	-12.4027
lert	-12.4029
▁sate	-12.4035
rtistic	-12.4035
▁toast	-12.404
▁afterward	-12.4046
polar	-12.4065
▁fenc	-12.4065
dollar	-12.4066
illuminat	-12.4071
▁province	-12.4071
▁pacif	-12.4075
emerg	-12.4076
firm	-12.4077
eaves	-12.4077
bob	-12.4077
wel	-12.408
▁releas	-12.4088
▁Uncon	-12.4089
knock	-12.409
propos	-12.4091
▁Rever	-12.4093
lade	-12.4099
▁aposta	-12.4101
Point	-12.4101
shod	-12.4103
▁derivative	-12.4103
accessib	-12.4103
crap	-12.4105
burg	-12.4105
preserv	-12.4106
▁ensur	-12.4107
synthetic	-12.4108
▁visitor	-12.4108
▁lur	-12.4108
flop	-12.4109
amino	-12.4111
collar	-12.4112
atu	-12.4112
hemi	-12.4113
servant	-12.4114
fortunate	-12.4114
circumcis	-12.4114
jet	-12.4115
camp	-12.4115
circulation	-12.4116
disc	-12.4117
▁persona	-12.4117
intuitive	-12.4118
solvent	-12.4118
whil	-12.4118
runner	-12.4119
knit	-12.4119
lift	-12.4119
hierarch	-12.4119
lka	-12.412
engineer	-12.412
wheat	-12.412
demonstrat	-12.4121
punk	-12.4121
organic	-12.4121
goat	-12.4121
present	-12.4121
bean	-12.4121
diminish	-12.4122
chromatic	-12.4122
▁pyro	-12.4122
author	-12.4122
density	-12.4122
shirt	-12.4122
commerc	-12.4123
routine	-12.4124
quiet	-12.4124
typical	-12.4124
gear	-12.4125
bodi	-12.4125
defense	-12.4125
nuclear	-12.4125
exit	-12.4125
silver	-12.4125
crowd	-12.4125
breast	-12.4126
high	-12.4126
activate	-12.4126
Japanese	-12.4126
Christian	-12.4127
shell	-12.4127
complex	-12.4127
week	-12.4127
debt	-12.4127
keeping	-12.4127
circular	-12.4127
film	-12.4127
protect	-12.4128
frame	-12.4128
girl	-12.4128
material	-12.4128
model	-12.4128
possession	-12.4128
professional	-12.4128
movement	-12.4129
catch	-12.4129
liquid	-12.4129
duty	-12.4129
appeal	-12.4129
commercial	-12.413
grade	-12.413
clothes	-12.413
becoming	-12.4131
object	-12.4132
istrust	-12.4133
threatening	-12.4134
bow	-12.4136
shift	-12.4136
boy	-12.4136
▁cycl	-12.4138
flight	-12.414
drop	-12.4141
eminen	-12.4141
lges	-12.4143
aliz	-12.4145
chair	-12.4145
▁Appl	-12.4146
genuine	-12.4147
damn	-12.4151
minent	-12.4151
spout	-12.4154
ctivity	-12.4154
flower	-12.4156
Asian	-12.4158
clude	-12.4161
feet	-12.4161
conceive	-12.4162
▁got	-12.4163
▁flu	-12.4167
conciliat	-12.4167
▁argu	-12.4168
▁fluster	-12.4168
▁Ran	-12.4169
▁dilat	-12.4172
▁distort	-12.4175
bbish	-12.4176
metall	-12.4178
viscera	-12.4179
▁uni	-12.4179
▁worked	-12.4182
uth	-12.4182
peaking	-12.4182
▁sund	-12.4184
▁purport	-12.4185
▁Op	-12.4187
scrupulous	-12.4188
smell	-12.4193
devi	-12.4195
▁spik	-12.4195
optic	-12.4195
carp	-12.4198
▁vita	-12.4201
▁glaz	-12.4206
▁coil	-12.4207
Fi	-12.4207
meat	-12.4207
▁tick	-12.421
deck	-12.4211
spirit	-12.4216
▁frank	-12.4223
stantly	-12.4225
▁braid	-12.4226
▁coexist	-12.4229
oni	-12.4229
▁precipitat	-12.4232
ground	-12.4233
mpervi	-12.4233
ackers	-12.4236
▁premature	-12.4236
vin	-12.4239
tenant	-12.424
ogram	-12.4241
ompatible	-12.4242
mitten	-12.4246
▁monoli	-12.4248
▁evoluti	-12.4249
away	-12.4252
ran	-12.4258
▁falsif	-12.4259
▁etern	-12.4259
yl	-12.426
▁declin	-12.426
rake	-12.4262
▁domi	-12.4263
inted	-12.4263
▁overuse	-12.4264
rolled	-12.4267
ane	-12.4268
egree	-12.4268
tagonist	-12.4268
icator	-12.4268
sanita	-12.4269
exhausti	-12.427
▁homicid	-12.4273
▁futur	-12.4274
▁uphol	-12.4278
▁circu	-12.4278
▁Ni	-12.4278
ashing	-12.4279
▁Spirit	-12.428
▁terribl	-12.428
▁Servi	-12.4281
culation	-12.4284
▁Pum	-12.4286
funct	-12.4289
▁radic	-12.4291
brain	-12.4291
▁Matt	-12.4292
▁decl	-12.4293
▁suffocat	-12.4297
▁utopia	-12.4297
dense	-12.4298
congruous	-12.4299
▁presumpt	-12.43
ptic	-12.4301
▁scree	-12.4301
▁suspens	-12.4301
▁paw	-12.4302
▁Polynesia	-12.4302
▁Satur	-12.4302
▁Hig	-12.4303
ifications	-12.4303
▁reproduce	-12.4303
▁extort	-12.4304
▁rememb	-12.4306
▁encumb	-12.4306
ocarp	-12.4306
▁instinct	-12.4307
▁Prevent	-12.4307
▁obli	-12.4307
asserti	-12.4307
elvin	-12.4307
▁transact	-12.4309
▁extravagan	-12.4309
▁diligen	-12.4309
doubted	-12.4309
▁evi	-12.4309
ido	-12.431
▁Though	-12.431
▁copi	-12.431
▁protuberan	-12.4312
ician	-12.4312
▁gorge	-12.4313
▁differentiate	-12.4313
▁geograph	-12.4314
▁cogniti	-12.4314
▁Posse	-12.4315
▁chromat	-12.4316
luggish	-12.4316
▁mob	-12.4316
▁connot	-12.4316
▁nervo	-12.4317
▁brothe	-12.4317
▁chick	-12.4318
xtraordinar	-12.4318
btain	-12.4318
▁octa	-12.4318
xamination	-12.4318
onventional	-12.4318
ghett	-12.4319
repared	-12.4319
ncourage	-12.4319
omplicated	-12.4319
▁miscarr	-12.4319
virus	-12.4319
reacherous	-12.4319
rogress	-12.432
ircumstance	-12.432
uncul	-12.432
expressi	-12.432
iscrimination	-12.432
octrine	-12.432
▁recru	-12.4321
ustere	-12.4321
▁doll	-12.4321
cogniza	-12.4321
rregular	-12.4321
gnoran	-12.4321
rassic	-12.4321
ennial	-12.4321
outheast	-12.4321
onderful	-12.4321
grin	-12.4321
uriti	-12.4322
edundancy	-12.4322
ebru	-12.4322
ocaliz	-12.4322
methoxy	-12.4322
ugat	-12.4322
▁encr	-12.4322
stigation	-12.4322
▁genero	-12.4322
▁alpha	-12.4322
▁petrol	-12.4322
▁recollect	-12.4322
,000,000	-12.4322
doctrinat	-12.4322
phrodit	-12.4322
ystricognath	-12.4322
▁Adequate	-12.4322
▁Anticipat	-12.4322
▁Ceratop	-12.4322
▁Claim	-12.4322
▁Double	-12.4322
▁Instruction	-12.4322
▁LGBT	-12.4322
▁Nazarene	-12.4322
▁Obscen	-12.4322
▁Obscure	-12.4322
▁Parliament	-12.4322
▁Record	-12.4322
▁Superior	-12.4322
▁Uruguay	-12.4322
▁Whitsunday	-12.4322
▁arbiter	-12.4322
▁asymptot	-12.4322
▁bankrupt	-12.4322
▁barbecue	-12.4322
▁bivalve	-12.4322
▁blasphem	-12.4322
▁cemetery	-12.4322
▁dapple	-12.4322
▁decarboxylation	-12.4322
▁devour	-12.4322
▁diarrhea	-12.4322
▁discourte	-12.4322
▁discrepanc	-12.4322
▁disfigur	-12.4322
▁disintegrate	-12.4322
▁dispel	-12.4322
▁egotistical	-12.4322
▁emaciated	-12.4322
▁embroider	-12.4322
▁enslave	-12.4322
▁estrogen	-12.4322
▁euphemis	-12.4322
▁fingernail	-12.4322
▁fluctuati	-12.4322
▁gradient	-12.4322
▁homoerotic	-12.4322
▁imbib	-12.4322
▁impenetrab	-12.4322
▁inaugurat	-12.4322
▁interchangeabl	-12.4322
▁intrigue	-12.4322
▁irrevocab	-12.4322
▁meritorious	-12.4322
▁misunderstand	-12.4322
▁monologue	-12.4322
▁municipal	-12.4322
▁musculature	-12.4322
▁nipples	-12.4322
▁nuance	-12.4322
▁obfuscate	-12.4322
▁oligo	-12.4322
▁persuasi	-12.4322
▁pinnacle	-12.4322
▁polyhedr	-12.4322
▁predominate	-12.4322
▁prognos	-12.4322
▁psychiatry	-12.4322
▁pterosaur	-12.4322
▁pyramid	-12.4322
▁reimburse	-12.4322
▁repartee	-12.4322
▁replenish	-12.4322
▁rheumatism	-12.4322
▁rhym	-12.4322
▁scurf	-12.4322
▁slaughter	-12.4322
▁stupefie	-12.4322
▁superflu	-12.4322
▁taciturn	-12.4322
▁trefoil	-12.4322
▁tutelar	-12.4322
▁undergraduate	-12.4322
▁underperforming	-12.4322
▁ungulate	-12.4322
▁uninterrupted	-12.4322
▁unspeakabl	-12.4322
▁verisimilitude	-12.4322
▁volunteer	-12.4322
astafarian	-12.4322
▁Astonishing	-12.4322
▁Carbon	-12.4322
▁Displeasing	-12.4322
▁Jehov	-12.4322
▁Join	-12.4322
▁Occasion	-12.4322
▁Perfect	-12.4322
▁Position	-12.4322
▁calligraph	-12.4322
▁caricature	-12.4322
▁devout	-12.4322
▁dystopia	-12.4322
▁hiccup	-12.4322
▁impatien	-12.4322
▁lenient	-12.4322
▁ordinari	-12.4322
▁resilien	-12.4322
▁ulcer	-12.4322
▁Attempt	-12.4322
▁Imagina	-12.4322
▁Insect	-12.4322
▁Ultimate	-12.4322
▁affluent	-12.4322
▁barbitur	-12.4322
▁betroth	-12.4322
▁horseshoe	-12.4322
▁lackadaisical	-12.4322
▁strangulation	-12.4322
▁London	-12.4322
▁Sheet	-12.4322
▁buffoon	-12.4322
▁crunch	-12.4322
▁dendrit	-12.4322
▁diphth	-12.4322
▁hexagon	-12.4322
▁misidentif	-12.4322
▁parrot	-12.4322
▁Saint	-12.4322
▁articulation	-12.4322
▁consolidate	-12.4322
▁diamond	-12.4322
▁disjoint	-12.4322
▁harpoon	-12.4322
▁irrigat	-12.4322
▁masturbat	-12.4322
▁Harass	-12.4322
▁Inappropriate	-12.4322
▁Prussia	-12.4322
▁adolescen	-12.4322
▁caramel	-12.4322
▁homophob	-12.4322
▁instalment	-12.4322
▁stridulat	-12.4322
companies	-12.4322
▁Spread	-12.4322
▁microblog	-12.4322
▁squalid	-12.4322
▁vaccine	-12.4322
▁Artific	-12.4322
▁Democrat	-12.4322
▁beguil	-12.4322
▁collude	-12.4322
rifoli	-12.4322
▁bagatell	-12.4322
▁covet	-12.4322
▁haplo	-12.4322
▁unfashionable	-12.4322
phinx	-12.4322
zim	-12.4322
▁enumerate	-12.4322
▁refund	-12.4322
▁revulsion	-12.4322
▁eclip	-12.4322
▁Implicit	-12.4322
▁amphi	-12.4322
▁Joh	-12.4322
▁Exclusive	-12.4322
▁gild	-12.4322
▁engulf	-12.4322
1980	-12.4322
▁Decay	-12.4322
▁catalyze	-12.4322
▁counterattack	-12.4322
▁snarl	-12.4322
▁deter	-12.4322
▁kidney	-12.4322
▁stabilize	-12.4322
▁salsa	-12.4322
mptu	-12.4322
▁Animal	-12.4322
▁Fabric	-12.4322
▁Transport	-12.4322
▁decelerati	-12.4322
▁decompressi	-12.4322
▁Disturb	-12.4322
▁banknote	-12.4322
▁tamper	-12.4322
▁Honour	-12.4322
▁unravel	-12.4322
▁whisper	-12.4322
▁Nahua	-12.4322
ichthy	-12.4322
▁embos	-12.4322
▁yeast	-12.4322
▁Immediate	-12.4322
▁Striking	-12.4322
▁adjourn	-12.4322
▁melanchol	-12.4322
▁thirteen	-12.4322
Saxon	-12.4322
▁Intuiti	-12.4322
▁arachn	-12.4322
▁concession	-12.4322
▁Injur	-12.4322
▁cowboy	-12.4322
▁pessimistic	-12.4322
▁betray	-12.4322
▁cherish	-12.4322
▁Sufficient	-12.4322
▁stoop	-12.4322
▁vegan	-12.4322
▁hurl	-12.4322
▁Indonesia	-12.4322
easured	-12.4322
▁cipher	-12.4322
▁Annoy	-12.4322
▁Lift	-12.4322
▁unseat	-12.4322
▁Separate	-12.4322
▁splatter	-12.4322
▁propensity	-12.4322
▁triathlon	-12.4322
▁asthma	-12.4323
▁immigrat	-12.4323
▁collage	-12.4323
▁Thai	-12.4323
▁flange	-12.4323
mpudent	-12.4323
▁zipper	-12.4323
▁veranda	-12.4323
▁flail	-12.4323
▁Pursu	-12.4323
▁scapula	-12.4323
iscussion	-12.4323
▁torrent	-12.4323
▁Faithful	-12.4323
▁flitch	-12.4323
▁Revolution	-12.4323
▁reassess	-12.4323
▁trauma	-12.4323
▁fervo	-12.4323
▁nano	-12.4323
▁sullie	-12.4323
▁ruminant	-12.4323
accid	-12.4323
▁grunt	-12.4323
▁Life	-12.4323
▁teammate	-12.4323
▁Preferr	-12.4323
fuge	-12.4323
▁haunt	-12.4323
▁triu	-12.4323
▁unaided	-12.4323
▁Typ	-12.4323
▁brawl	-12.4323
▁zombi	-12.4323
▁pigeon	-12.4323
▁hemp	-12.4323
▁trap	-12.4323
▁butcher	-12.4324
▁Singular	-12.4324
▁conscientious	-12.4324
▁hoax	-12.4324
▁sympathize	-12.4324
kpa	-12.4324
▁nitrate	-12.4324
▁decompose	-12.4324
▁unsettl	-12.4324
▁encase	-12.4324
▁nimbl	-12.4324
▁bronze	-12.4324
▁myo	-12.4324
▁eag	-12.4324
▁fructif	-12.4324
▁complimentary	-12.4324
▁Ornament	-12.4324
▁tatter	-12.4324
▁cellulo	-12.4324
▁Frag	-12.4324
▁exege	-12.4324
orbell	-12.4324
ervent	-12.4324
erpent	-12.4324
▁polity	-12.4324
▁untouch	-12.4324
▁Scarc	-12.4324
normous	-12.4325
▁groan	-12.4325
▁fifth	-12.4325
▁medication	-12.4325
▁shred	-12.4325
▁admoni	-12.4325
▁felon	-12.4325
▁superscribe	-12.4325
▁vul	-12.4325
▁prefix	-12.4325
▁vigilant	-12.4325
▁hemo	-12.4325
▁Upper	-12.4325
▁taunt	-12.4325
▁converge	-12.4325
▁toxin	-12.4325
▁cask	-12.4325
▁Rio	-12.4325
▁Loose	-12.4325
▁Vul	-12.4325
▁hub	-12.4325
▁hostel	-12.4326
▁perpetrator	-12.4326
▁Order	-12.4326
▁brook	-12.4326
▁hoof	-12.4326
▁1820	-12.4326
▁indescribabl	-12.4326
▁Day	-12.4326
▁Sudden	-12.4326
▁tramp	-12.4326
▁stink	-12.4326
▁preservative	-12.4326
▁Remov	-12.4326
▁Lake	-12.4326
▁Satanism	-12.4326
▁Luna	-12.4326
▁impassive	-12.4326
▁biped	-12.4326
▁solo	-12.4326
▁anneal	-12.4326
▁resign	-12.4327
▁Glass	-12.4327
▁Trick	-12.4327
▁Mille	-12.4327
▁shirk	-12.4327
▁expedition	-12.4327
▁laziness	-12.4327
▁journalist	-12.4327
▁Georgian	-12.4327
▁First	-12.4327
▁Republican	-12.4327
▁knap	-12.4327
▁varnish	-12.4327
thyroid	-12.4327
▁abolish	-12.4328
▁sluggish	-12.4328
▁governess	-12.4328
▁plent	-12.4328
▁effemina	-12.4328
▁mishap	-12.4328
▁coincide	-12.4328
▁reclaim	-12.4328
▁kana	-12.4328
▁reanimate	-12.4328
▁veneer	-12.4329
▁hull	-12.4329
▁metaphoric	-12.4329
▁subsp	-12.4329
avelin	-12.4329
tiny	-12.4329
hrivel	-12.4329
▁infest	-12.4329
▁acre	-12.4329
ynch	-12.433
▁tiresome	-12.433
▁impossibility	-12.433
▁Expos	-12.433
▁Finish	-12.433
▁rins	-12.433
▁profan	-12.433
▁Time	-12.433
arithm	-12.433
▁Unaware	-12.433
▁dorm	-12.433
▁uplift	-12.433
▁Dense	-12.4331
▁snowboard	-12.4331
▁defiant	-12.4331
toplasm	-12.4331
▁beetle	-12.4331
▁Down	-12.4331
▁landmark	-12.4331
▁feline	-12.4332
▁merg	-12.4332
▁Institution	-12.4332
▁courtesan	-12.4332
▁fawn	-12.4332
▁pisc	-12.4333
▁sidewalk	-12.4333
tome	-12.4333
▁magnify	-12.4333
▁pamp	-12.4333
▁shun	-12.4333
▁outbuilding	-12.4333
▁eighth	-12.4333
▁minus	-12.4333
▁Curv	-12.4334
soft	-12.4334
▁Silen	-12.4334
upposed	-12.4334
▁Broad	-12.4334
▁interstice	-12.4335
▁trunc	-12.4335
▁guidance	-12.4335
▁salad	-12.4335
▁Catholicism	-12.4335
▁polygraph	-12.4335
▁Comb	-12.4336
▁meander	-12.4336
arch	-12.4337
eminin	-12.4337
▁Impressive	-12.4337
0,	-12.4337
▁rectum	-12.4337
▁coastline	-12.4337
▁zoolog	-12.4338
▁jewelry	-12.4338
▁jelly	-12.4338
▁quirky	-12.4338
▁policeman	-12.4338
▁fig	-12.4339
▁minimalism	-12.4339
ozoan	-12.4339
▁reticul	-12.4339
▁thugg	-12.4339
agre	-12.4339
▁scrambl	-12.4339
▁goof	-12.434
▁waive	-12.434
▁upload	-12.4341
▁shear	-12.4341
▁slacken	-12.4341
▁pavement	-12.4342
religious	-12.4342
▁plung	-12.4342
▁zest	-12.4342
itis	-12.4342
ogloss	-12.4343
▁attribution	-12.4343
▁confidential	-12.4343
▁rectify	-12.4343
▁fume	-12.4344
▁shit	-12.4344
▁Thought	-12.4344
▁epitom	-12.4344
▁electr	-12.4345
▁Receiv	-12.4345
▁shark	-12.4345
▁patho	-12.4345
▁modal	-12.4346
▁interw	-12.4347
▁Rare	-12.4347
bec	-12.4348
▁Personal	-12.4348
▁Islander	-12.4348
▁Travell	-12.4349
▁Moor	-12.4349
stinctively	-12.4349
▁scout	-12.435
▁Hesita	-12.435
▁seventh	-12.4351
▁marble	-12.4351
▁outtake	-12.4352
▁charter	-12.4352
▁Cel	-12.4352
▁sooner	-12.4353
dynamic	-12.4353
anka	-12.4353
▁Shin	-12.4354
denture	-12.4354
▁naive	-12.4355
▁petrifi	-12.4355
▁whisked	-12.4355
▁quenched	-12.4355
▁trumped	-12.4355
▁191	-12.4356
▁countless	-12.4356
▁Matter	-12.4358
yrene	-12.4358
▁ratify	-12.4359
indulgence	-12.4359
▁presumption	-12.436
altz	-12.436
▁idiomatic	-12.436
wenty	-12.436
urist	-12.436
▁curt	-12.436
working	-12.4361
arious	-12.4362
lepto	-12.4362
quint	-12.4362
oreign	-12.4363
inyl	-12.4364
▁clot	-12.4364
▁Clean	-12.4365
▁bouncy	-12.4365
▁photocopy	-12.4366
▁admissi	-12.4366
▁interrogate	-12.4366
▁outwit	-12.4366
▁glutton	-12.4366
iculous	-12.4366
▁shameful	-12.4367
1981	-12.4367
oscope	-12.4367
▁Pter	-12.4368
▁Since	-12.4368
▁chronicle	-12.4368
▁drizzl	-12.437
▁Lap	-12.4371
▁affliction	-12.4371
nomina	-12.4371
▁pervade	-12.4371
▁Upward	-12.4371
▁homicide	-12.4372
▁roleplay	-12.4373
▁sponge	-12.4373
▁overlook	-12.4373
▁crest	-12.4373
▁shuffl	-12.4374
▁nucleotide	-12.4374
▁erroneous	-12.4374
▁sacchari	-12.4374
▁opportune	-12.4374
▁appraise	-12.4374
▁heterog	-12.4375
zo	-12.4376
▁amyl	-12.4376
umbr	-12.4376
▁chaff	-12.4376
▁syntactic	-12.4376
▁attackers	-12.4377
xercis	-12.4377
▁spank	-12.4377
empty	-12.4377
▁empath	-12.4378
▁las	-12.4378
▁malle	-12.4378
▁quote	-12.4378
▁snobb	-12.4379
▁conquer	-12.4379
▁conjure	-12.4379
▁integration	-12.4379
▁pioneering	-12.4379
▁Litera	-12.4379
▁Equal	-12.438
▁senti	-12.438
▁tweet	-12.438
▁Cont	-12.4381
▁variegate	-12.4381
▁dew	-12.4381
▁recl	-12.4381
▁disco	-12.4381
▁gallant	-12.4381
lamboyan	-12.4382
▁Dete	-12.4382
▁Foc	-12.4382
arnivor	-12.4383
▁tast	-12.4383
▁salut	-12.4385
dible	-12.4385
▁incapacitate	-12.4385
chic	-12.4385
▁governor	-12.4387
▁lame	-12.4387
▁vehemently	-12.4388
▁chaste	-12.4388
▁Deliberately	-12.4388
▁incest	-12.4388
▁mortal	-12.439
▁justifiable	-12.439
▁Definiti	-12.4391
▁sully	-12.4392
▁arrogan	-12.4392
▁pulle	-12.4392
▁slot	-12.4392
▁ballot	-12.4393
▁credentials	-12.4393
▁alloy	-12.4394
▁Notice	-12.4394
enzy	-12.4395
▁Stupid	-12.4396
bris	-12.4398
▁solicitous	-12.4398
▁graduate	-12.4401
▁Ambi	-12.4402
▁beseech	-12.4403
▁correspondent	-12.4404
directed	-12.4404
numen	-12.4404
▁CD	-12.4405
orize	-12.4406
▁regulator	-12.4406
▁workplace	-12.4407
▁Styl	-12.4407
▁undem	-12.4407
▁trinit	-12.4408
yche	-12.4409
▁transom	-12.4409
▁insan	-12.4413
▁accountabilit	-12.4413
▁astron	-12.4413
▁beep	-12.4414
▁reticen	-12.4414
▁justify	-12.4415
▁calcin	-12.4417
▁gripp	-12.442
meral	-12.442
▁Inher	-12.4421
▁Test	-12.4421
▁ortho	-12.4421
▁Extr	-12.4423
▁Eur	-12.4423
vantage	-12.4423
jumb	-12.4426
▁forfeit	-12.4429
gracious	-12.443
▁gour	-12.443
▁cryptogra	-12.4431
▁fatten	-12.4432
▁shrewd	-12.4432
lico	-12.4432
heral	-12.4433
cyclical	-12.4434
▁reshape	-12.4435
▁warp	-12.4436
▁wrestle	-12.4441
rinkl	-12.4442
inform	-12.4444
▁anthropo	-12.4446
▁cache	-12.4446
▁sinus	-12.4446
ink	-12.4448
▁Soli	-12.4448
▁Sparing	-12.4448
▁mangle	-12.4452
▁worshipp	-12.4452
▁ram	-12.4454
▁Pand	-12.4454
▁Assum	-12.4455
Dick	-12.4457
▁Memor	-12.4459
▁starve	-12.446
▁lumb	-12.446
▁racis	-12.4461
▁sculptur	-12.4461
▁abduct	-12.4463
▁atro	-12.4464
▁Nigh	-12.4465
▁Aborigin	-12.4465
retic	-12.4468
iquit	-12.4468
▁enr	-12.4468
aptured	-12.4468
▁synchronous	-12.4469
▁improvisational	-12.4472
pation	-12.4472
▁gong	-12.4472
▁sol	-12.4474
▁drowsi	-12.4474
▁flatb	-12.4475
▁gum	-12.4475
urel	-12.4476
▁petal	-12.4477
aurant	-12.4478
▁ascent	-12.4484
▁dilated	-12.4487
▁Mara	-12.4493
▁commandment	-12.4494
▁smo	-12.4495
pin	-12.4495
▁equivocat	-12.4499
nner	-12.45
▁compost	-12.4502
▁resume	-12.4502
▁amass	-12.4504
▁Mischie	-12.4505
▁flicker	-12.4506
rite	-12.4506
▁allo	-12.4508
▁fric	-12.4509
▁disoriented	-12.451
faced	-12.4511
▁dependable	-12.4511
▁financing	-12.4511
▁prongs	-12.4514
utter	-12.4515
▁holograph	-12.4516
▁Endur	-12.4517
LS	-12.4518
▁mand	-12.452
▁derivation	-12.4523
icide	-12.4524
building	-12.4524
▁infer	-12.4528
▁apolog	-12.4535
▁ador	-12.454
restrict	-12.4541
▁influx	-12.4542
▁Tro	-12.4543
▁Ear	-12.4545
▁superpos	-12.4547
▁indenture	-12.4547
▁Grow	-12.4548
Sit	-12.4548
▁communit	-12.4549
rophy	-12.4551
▁destitut	-12.4552
▁sack	-12.4552
estate	-12.4552
▁lineage	-12.4553
▁seasonal	-12.4553
▁Chill	-12.4553
▁knock	-12.4559
▁attache	-12.456
▁mismatch	-12.456
▁institut	-12.4561
ohemia	-12.4567
▁Ab	-12.4569
▁stealth	-12.4572
vement	-12.4573
hasia	-12.4578
▁consti	-12.458
▁quantifi	-12.4582
pulse	-12.4583
▁Va	-12.4583
▁aster	-12.4585
▁Gn	-12.4587
▁bower	-12.4589
rim	-12.4589
▁formaliz	-12.4593
▁exasperat	-12.4594
▁Sure	-12.4595
refined	-12.4596
plate	-12.4597
▁labourer	-12.4598
▁hacker	-12.4601
orn	-12.4603
iotechnology	-12.4604
so	-12.4605
▁sca	-12.4606
▁flake	-12.4606
usted	-12.4608
thematic	-12.4611
▁federa	-12.4615
▁thym	-12.4618
quent	-12.4625
▁Supp	-12.4625
▁Elo	-12.4628
genetic	-12.463
mb	-12.463
▁Agreeabl	-12.4631
▁receivable	-12.4634
alogue	-12.4637
eddy	-12.464
clusive	-12.464
▁mediate	-12.4641
▁dispense	-12.4641
▁allocat	-12.4647
▁prodig	-12.4647
zza	-12.4648
▁immigrants	-12.4648
▁submarines	-12.4648
statement	-12.4652
▁invasive	-12.4655
▁Visibl	-12.4655
▁clan	-12.4657
▁carpeted	-12.4658
▁undeserv	-12.4659
▁Reli	-12.4662
▁Fri	-12.4663
▁Practical	-12.4663
rowning	-12.4664
▁provinces	-12.4669
▁sl	-12.4672
▁rave	-12.4677
▁fal	-12.4681
eathen	-12.4685
▁vegeta	-12.4686
▁sage	-12.4689
▁Jam	-12.4695
▁mea	-12.4697
ell	-12.4697
post	-12.47
sty	-12.4711
▁boxer	-12.4716
▁historic	-12.4721
▁pl	-12.4728
hocking	-12.4728
assuming	-12.4728
▁droo	-12.4741
▁versed	-12.4745
dida	-12.4748
▁believer	-12.4749
luke	-12.4753
andida	-12.4762
▁lash	-12.4777
▁pelvis	-12.4781
▁classifi	-12.4783
ternal	-12.4785
nder	-12.4789
ischi	-12.4797
clusion	-12.4809
▁confla	-12.4816
▁prepay	-12.4816
▁proficien	-12.4826
tor	-12.4831
eton	-12.4832
▁factual	-12.484
▁munition	-12.4842
▁untrust	-12.4844
▁Hann	-12.4844
▁geologic	-12.4845
▁gam	-12.485
endor	-12.4851
nomination	-12.4854
semen	-12.4858
▁thinker	-12.4859
▁refere	-12.486
assur	-12.4867
cheri	-12.4876
▁splin	-12.4877
rants	-12.4878
imen	-12.4885
▁buff	-12.4888
▁seams	-12.4889
emia	-12.4894
▁Los	-12.4903
welf	-12.4906
▁jig	-12.4906
sch	-12.4906
▁disputati	-12.4907
▁Drive	-12.4911
▁striker	-12.4916
▁tremble	-12.4919
alignan	-12.492
▁commenc	-12.492
▁extensively	-12.4921
▁Passe	-12.4923
lodge	-12.4924
ndemn	-12.4931
▁foreigners	-12.4931
▁201	-12.4937
▁accordion	-12.4942
▁treasure	-12.4945
▁abash	-12.4951
▁galle	-12.4953
perfect	-12.4959
▁interrogat	-12.4962
▁corr	-12.4966
remoni	-12.4974
treatment	-12.4979
▁trader	-12.498
▁waterway	-12.4987
▁fli	-12.4988
▁spite	-12.4991
▁conceiv	-12.4995
▁cran	-12.4998
mous	-12.5001
▁pseudo	-12.5008
▁dodg	-12.501
▁airway	-12.5016
finger	-12.5018
▁Pol	-12.502
ighteous	-12.5026
▁glaze	-12.5031
▁collaps	-12.5038
▁coagulate	-12.504
strate	-12.5043
rassica	-12.5044
▁antiquari	-12.5047
ishment	-12.5047
▁gems	-12.505
sack	-12.5053
barter	-12.5064
▁sane	-12.5073
ionship	-12.5074
vitation	-12.5078
mph	-12.508
ipped	-12.5082
▁translat	-12.5087
▁Clos	-12.5087
ocaine	-12.509
strum	-12.5112
ssful	-12.5113
uding	-12.5115
▁pimp	-12.5118
▁attributive	-12.5119
▁insinuat	-12.5123
rd	-12.5125
▁minc	-12.5135
▁Plan	-12.5139
▁paleo	-12.5141
▁clog	-12.5144
▁mixe	-12.5147
▁tum	-12.5148
▁refr	-12.5148
vering	-12.5154
▁devastat	-12.5157
▁reput	-12.518
▁menac	-12.5181
▁em	-12.5185
orefront	-12.5189
▁embl	-12.5191
▁oblige	-12.5192
if	-12.5196
ass	-12.5211
arousal	-12.5214
▁uncritical	-12.5216
tating	-12.5216
usage	-12.5219
▁pens	-12.5222
raphi	-12.5222
▁Shar	-12.5223
arity	-12.5227
▁fighter	-12.5236
▁soothe	-12.5243
▁Every	-12.5247
▁profi	-12.5253
hocke	-12.5253
▁Harmon	-12.5256
timidating	-12.5258
▁Mode	-12.5265
▁garn	-12.5265
frequent	-12.5272
date	-12.5276
▁Pin	-12.5276
erpe	-12.5282
isation	-12.5285
▁devote	-12.5291
nant	-12.5298
pers	-12.5311
▁inferr	-12.5311
▁predictab	-12.5316
▁restored	-12.5323
▁manu	-12.5328
▁rega	-12.533
▁mannerism	-12.5334
▁cis	-12.5334
arrange	-12.5338
omi	-12.5342
burden	-12.5356
▁Get	-12.5356
▁bushe	-12.5364
▁vane	-12.5371
opus	-12.5373
plex	-12.5375
size	-12.5377
▁humour	-12.5382
▁morta	-12.5384
retentious	-12.5385
▁southw	-12.5386
▁presid	-12.5399
omit	-12.5408
▁solidifi	-12.5409
agio	-12.5415
▁Fun	-12.5418
oves	-12.542
igorous	-12.5424
dilla	-12.5425
▁differentiat	-12.5433
▁identifie	-12.5436
vani	-12.5442
embers	-12.5445
▁scorch	-12.5445
ploy	-12.5447
ears	-12.5454
▁entangl	-12.5455
▁impe	-12.5462
pant	-12.5466
▁evacuat	-12.5473
▁realise	-12.5478
▁abs	-12.5479
▁Hou	-12.5483
iths	-12.5484
▁Musc	-12.5484
▁dil	-12.5491
ssar	-12.5497
lip	-12.5504
▁sep	-12.5505
biograph	-12.5507
precedent	-12.551
▁mod	-12.5512
▁widen	-12.5516
▁godd	-12.5518
▁Dishon	-12.5525
▁strippe	-12.5531
▁procreat	-12.5537
▁unclea	-12.5542
▁dom	-12.5558
limmer	-12.5567
▁ster	-12.5572
▁counted	-12.5577
▁evolv	-12.558
rren	-12.5581
ari	-12.5582
riform	-12.5584
▁imping	-12.5595
▁snaps	-12.5596
▁paramou	-12.5597
aliphat	-12.56
rown	-12.5615
cca	-12.5619
▁Clea	-12.5621
only	-12.5628
cruise	-12.5629
▁glaciat	-12.5636
▁idl	-12.5641
▁bogg	-12.5673
ruel	-12.5677
▁null	-12.5678
▁rela	-12.568
uminous	-12.569
▁sal	-12.5691
lty	-12.5703
horn	-12.5711
▁hacks	-12.5711
mok	-12.5719
▁underp	-12.5729
▁casts	-12.5733
eater	-12.5735
▁Hon	-12.5736
▁glute	-12.5736
▁vib	-12.5738
▁brin	-12.5743
urb	-12.5747
▁spru	-12.577
ssert	-12.5778
▁nic	-12.578
▁Ed	-12.5784
meter	-12.579
▁alphabetic	-12.5797
▁Polit	-12.5818
▁pala	-12.5821
▁reasonabl	-12.5823
▁Fir	-12.5832
▁sm	-12.5838
▁jett	-12.5838
ncid	-12.5844
justified	-12.5852
▁raft	-12.5865
▁debat	-12.5878
▁dro	-12.5878
just	-12.5889
eated	-12.5891
portive	-12.5892
ishwash	-12.5917
▁barrels	-12.592
jo	-12.5947
▁disengage	-12.5948
▁mag	-12.5948
rumen	-12.5953
sign	-12.5972
neous	-12.5972
▁Reve	-12.5974
bilit	-12.598
▁Sensation	-12.5989
▁possessor	-12.5994
azz	-12.5995
▁delegat	-12.6022
true	-12.6023
▁Cer	-12.6033
▁sill	-12.6045
are	-12.6049
za	-12.605
versions	-12.6052
ova	-12.6057
mins	-12.6059
ital	-12.6071
▁Wit	-12.6072
▁lamps	-12.6076
numera	-12.6077
▁procedures	-12.608
ula	-12.6085
▁influenc	-12.6092
unset	-12.6112
▁summari	-12.6119
▁voiced	-12.6124
▁luc	-12.6126
▁humbl	-12.6129
sta	-12.613
▁hym	-12.615
▁synta	-12.616
▁mira	-12.617
onary	-12.6186
get	-12.619
zoo	-12.6197
▁superintend	-12.6201
anese	-12.6202
▁badge	-12.6219
▁semantics	-12.6224
▁barr	-12.6239
▁reha	-12.6239
ptera	-12.6247
▁Marri	-12.6248
▁Expendi	-12.625
vid	-12.6262
▁saga	-12.6266
ishes	-12.6276
wagg	-12.6282
▁Para	-12.6282
thos	-12.6284
sement	-12.6294
9-	-12.632
▁activat	-12.6326
▁heads	-12.6338
div	-12.6351
▁designing	-12.6353
▁fibro	-12.6353
▁ve	-12.6354
▁unearth	-12.6358
artial	-12.6363
▁castrate	-12.6371
ddish	-12.6386
▁institutional	-12.6394
▁Vari	-12.6401
lar	-12.6411
racksuit	-12.6413
▁Bel	-12.6429
▁lov	-12.6436
luff	-12.6445
larity	-12.6448
▁metha	-12.6452
▁Sm	-12.6456
hin	-12.6469
▁Bur	-12.6479
itation	-12.6482
▁Permissi	-12.6485
oris	-12.649
pelag	-12.6503
▁cling	-12.6506
▁skat	-12.6507
▁reserves	-12.6511
tubb	-12.6515
pa	-12.6516
▁flo	-12.6518
▁citizens	-12.652
▁sailboa	-12.6524
▁microc	-12.6528
▁heav	-12.6528
cripture	-12.6533
destruct	-12.6538
▁resc	-12.6544
▁memoriz	-12.6547
▁corne	-12.6573
Hungary	-12.6578
ena	-12.6593
▁overrid	-12.6598
▁levi	-12.6625
▁prais	-12.6626
▁Mal	-12.6643
requently	-12.6658
▁meth	-12.6661
▁soci	-12.6661
▁discolo	-12.6674
▁virtuo	-12.668
▁castrat	-12.6681
phosph	-12.6703
▁shells	-12.6704
ano	-12.6724
▁ingen	-12.6725
aken	-12.6728
▁cyan	-12.6748
▁bayo	-12.6754
ows	-12.6757
▁Gal	-12.6773
ightly	-12.6773
installation	-12.6773
▁multiplica	-12.6777
▁lighten	-12.6781
uff	-12.6783
▁ran	-12.6785
▁Pres	-12.68
tax	-12.6803
▁secrete	-12.6807
▁ple	-12.6812
neoplas	-12.6814
aw	-12.6827
eeming	-12.683
numer	-12.683
rup	-12.6832
hori	-12.6841
▁Terrif	-12.6855
alo	-12.6862
▁Den	-12.6887
▁considerabl	-12.6889
▁acce	-12.689
rew	-12.6899
lude	-12.6899
tially	-12.6903
▁Cl	-12.6923
ngui	-12.6925
▁purp	-12.6933
▁supers	-12.6962
▁Pu	-12.697
▁gastro	-12.6979
▁Bar	-12.6981
emi	-12.6984
▁cul	-12.6994
▁nutri	-12.6997
happy	-12.7022
stle	-12.7026
ettes	-12.7041
lair	-12.7053
▁respective	-12.707
▁scr	-12.7075
ong	-12.7092
▁laughabl	-12.7102
maste	-12.711
can	-12.7113
▁disengag	-12.7122
west	-12.713
▁scrutin	-12.713
▁blu	-12.714
▁termin	-12.7141
rned	-12.7147
▁excell	-12.7156
▁beet	-12.7178
▁copula	-12.7184
teful	-12.7185
▁Sport	-12.7192
rches	-12.7194
▁immerse	-12.7196
▁legaliz	-12.7198
▁rab	-12.7198
▁pollute	-12.7216
▁carpe	-12.7225
reless	-12.7234
▁dilut	-12.7235
▁unsee	-12.7246
▁Blu	-12.7257
▁zoo	-12.7263
ill	-12.7268
ilic	-12.7274
▁paralys	-12.7278
zoot	-12.7279
ba	-12.7284
chos	-12.7313
▁insurgen	-12.7327
ett	-12.7343
▁Wis	-12.7361
qua	-12.7373
▁affi	-12.7388
▁dul	-12.7423
▁kara	-12.7424
chia	-12.7425
▁swindl	-12.7428
tentious	-12.7431
tis	-12.7435
reak	-12.7435
▁unwel	-12.7438
cytosi	-12.7439
▁scholars	-12.7455
▁coff	-12.7462
yrian	-12.7465
▁notional	-12.747
yielding	-12.749
icable	-12.7501
eaching	-12.7504
geria	-12.7505
illing	-12.7506
▁acc	-12.7516
bel	-12.7523
▁contribut	-12.7525
ipping	-12.7526
fide	-12.7532
▁financ	-12.7551
▁activi	-12.7557
flattering	-12.7558
fur	-12.7564
▁cruis	-12.7578
▁yo	-12.7579
▁Smo	-12.759
estine	-12.7592
▁undef	-12.7601
▁Bell	-12.7614
▁foresee	-12.7633
▁glaci	-12.7637
▁cas	-12.7645
▁suckl	-12.7654
▁sustainabl	-12.7668
▁canto	-12.7674
▁hoo	-12.7677
▁caste	-12.7683
▁Vis	-12.7734
atry	-12.7748
esis	-12.7749
favour	-12.7759
▁Ris	-12.777
▁condense	-12.7787
▁sens	-12.7791
art	-12.78
icy	-12.7809
ps	-12.7825
▁jok	-12.784
ersed	-12.7844
licit	-12.7845
ites	-12.7849
ual	-12.7853
mina	-12.7857
▁Fate	-12.7861
bing	-12.7862
▁engrave	-12.7874
pon	-12.7875
▁skip	-12.7883
ulation	-12.7883
val	-12.7885
▁exci	-12.7909
▁eliminat	-12.791
rayon	-12.7913
▁reliabl	-12.7914
ours	-12.7917
▁relate	-12.7917
tre	-12.794
▁consol	-12.795
archi	-12.795
▁Concei	-12.7958
▁yel	-12.7966
▁parsi	-12.7971
▁axe	-12.7973
etter	-12.7975
cat	-12.7983
bie	-12.8003
ewing	-12.8007
inate	-12.801
▁publishe	-12.8014
▁Sub	-12.8014
gon	-12.8031
▁Provi	-12.804
racket	-12.8047
location	-12.8049
iatric	-12.8049
irsty	-12.8058
tta	-12.8064
▁verif	-12.8082
▁hoc	-12.8086
▁devastate	-12.8089
▁matt	-12.8095
▁navigate	-12.8096
phen	-12.8098
season	-12.8107
▁abase	-12.8127
▁pear	-12.8127
alysis	-12.8131
▁insinuate	-12.8135
ugal	-12.8136
▁upbr	-12.8139
▁mince	-12.8143
bra	-12.8143
nco	-12.815
scrape	-12.8152
▁wil	-12.8154
▁Fa	-12.8166
▁landl	-12.8175
locks	-12.8185
▁apprecia	-12.8189
▁diversif	-12.8191
▁segregate	-12.8212
▁Side	-12.8227
rump	-12.823
▁Cle	-12.8244
▁tinge	-12.8245
2.	-12.8254
hren	-12.8254
thetic	-12.8266
bit	-12.8293
siege	-12.8303
▁sphe	-12.8303
rror	-12.8314
gether	-12.8314
▁overla	-12.8315
oster	-12.8326
▁intra	-12.8332
▁dedicate	-12.8359
bite	-12.8359
▁discharg	-12.8365
ec	-12.8366
you	-12.8386
trustworth	-12.8413
▁malt	-12.8413
▁commence	-12.8415
▁Corp	-12.8419
▁imped	-12.8434
▁cine	-12.8449
rig	-12.8474
rian	-12.8478
▁retrieve	-12.8485
Cl	-12.8485
▁translate	-12.8491
uba	-12.8494
icida	-12.85
▁donat	-12.8504
mel	-12.8507
▁stifle	-12.8516
ubb	-12.8528
herently	-12.8528
greeable	-12.8529
eckles	-12.8535
▁rev	-12.8537
▁chron	-12.8543
wing	-12.8544
vel	-12.8548
ggle	-12.855
pression	-12.8552
now	-12.856
▁bounc	-12.8561
lence	-12.8566
▁coloni	-12.8584
▁requi	-12.8592
obiology	-12.8593
▁generaliz	-12.8596
lative	-12.8602
▁Di	-12.8603
flagrati	-12.8607
elling	-12.8609
▁tr	-12.8618
ocrat	-12.8619
bine	-12.863
▁jug	-12.863
idious	-12.8634
ck	-12.8637
purpose	-12.8641
▁regime	-12.8658
▁offici	-12.8661
pse	-12.8668
▁trib	-12.8672
▁stipulat	-12.8678
arid	-12.8681
lite	-12.869
81	-12.8692
▁Oblig	-12.8697
▁outpo	-12.87
ssel	-12.8701
▁Pari	-12.8709
▁Pi	-12.8712
jection	-12.8713
▁Bh	-12.8718
▁substitu	-12.8719
▁gui	-12.8725
mentioned	-12.8726
▁irr	-12.8738
▁exc	-12.8743
gian	-12.875
▁billing	-12.8751
ino	-12.8757
▁Gui	-12.8759
▁Alternat	-12.876
▁Stre	-12.876
▁rehearse	-12.8762
zt	-12.8777
potent	-12.8785
▁dopa	-12.8793
▁Electric	-12.8796
▁striv	-12.88
▁Vegeta	-12.8808
effectual	-12.881
rave	-12.8814
poo	-12.8815
▁defra	-12.8816
▁Mem	-12.8816
bi	-12.8818
volution	-12.883
hu	-12.8839
▁vot	-12.8839
▁pinche	-12.8843
produc	-12.8843
▁whist	-12.8845
▁dogmati	-12.8845
▁glo	-12.8847
▁spor	-12.885
▁unf	-12.8858
[...]
